{
  "version": "1.0",
  "truncation": {
    "direction": "Right",
    "max_length": 2048,
    "strategy": "LongestFirst",
    "stride": 0
  },
  "padding": {
    "strategy": {
      "Fixed": 2048
    },
    "direction": "Left",
    "pad_to_multiple_of": null,
    "pad_id": 32014,
    "pad_type_id": 0,
    "pad_token": "<｜end▁of▁sentence｜>"
  },
  "added_tokens": [
    {
      "id": 32000,
      "content": "õ",
      "single_word": false,
      "lstrip": false,
      "rstrip": false,
      "normalized": true,
      "special": false
    },
    {
      "id": 32001,
      "content": "÷",
      "single_word": false,
      "lstrip": false,
      "rstrip": false,
      "normalized": true,
      "special": false
    },
    {
      "id": 32002,
      "content": "Á",
      "single_word": false,
      "lstrip": false,
      "rstrip": false,
      "normalized": true,
      "special": false
    },
    {
      "id": 32003,
      "content": "ý",
      "single_word": false,
      "lstrip": false,
      "rstrip": false,
      "normalized": true,
      "special": false
    },
    {
      "id": 32004,
      "content": "À",
      "single_word": false,
      "lstrip": false,
      "rstrip": false,
      "normalized": true,
      "special": false
    },
    {
      "id": 32005,
      "content": "ÿ",
      "single_word": false,
      "lstrip": false,
      "rstrip": false,
      "normalized": true,
      "special": false
    },
    {
      "id": 32006,
      "content": "ø",
      "single_word": false,
      "lstrip": false,
      "rstrip": false,
      "normalized": true,
      "special": false
    },
    {
      "id": 32007,
      "content": "ú",
      "single_word": false,
      "lstrip": false,
      "rstrip": false,
      "normalized": true,
      "special": false
    },
    {
      "id": 32008,
      "content": "þ",
      "single_word": false,
      "lstrip": false,
      "rstrip": false,
      "normalized": true,
      "special": false
    },
    {
      "id": 32009,
      "content": "ü",
      "single_word": false,
      "lstrip": false,
      "rstrip": false,
      "normalized": true,
      "special": false
    },
    {
      "id": 32010,
      "content": "ù",
      "single_word": false,
      "lstrip": false,
      "rstrip": false,
      "normalized": true,
      "special": false
    },
    {
      "id": 32011,
      "content": "ö",
      "single_word": false,
      "lstrip": false,
      "rstrip": false,
      "normalized": true,
      "special": false
    },
    {
      "id": 32012,
      "content": "û",
      "single_word": false,
      "lstrip": false,
      "rstrip": false,
      "normalized": true,
      "special": false
    },
    {
      "id": 32013,
      "content": "<｜begin▁of▁sentence｜>",
      "single_word": false,
      "lstrip": false,
      "rstrip": false,
      "normalized": true,
      "special": true
    },
    {
      "id": 32014,
      "content": "<｜end▁of▁sentence｜>",
      "single_word": false,
      "lstrip": false,
      "rstrip": false,
      "normalized": true,
      "special": true
    },
    {
      "id": 32015,
      "content": "<｜fim▁hole｜>",
      "single_word": false,
      "lstrip": false,
      "rstrip": false,
      "normalized": true,
      "special": false
    },
    {
      "id": 32016,
      "content": "<｜fim▁begin｜>",
      "single_word": false,
      "lstrip": false,
      "rstrip": false,
      "normalized": true,
      "special": false
    },
    {
      "id": 32017,
      "content": "<｜fim▁end｜>",
      "single_word": false,
      "lstrip": false,
      "rstrip": false,
      "normalized": true,
      "special": false
    },
    {
      "id": 32018,
      "content": "<pad>",
      "single_word": false,
      "lstrip": false,
      "rstrip": false,
      "normalized": true,
      "special": false
    },
    {
      "id": 32019,
      "content": "<|User|>",
      "single_word": false,
      "lstrip": false,
      "rstrip": false,
      "normalized": true,
      "special": false
    },
    {
      "id": 32020,
      "content": "<|Assistant|>",
      "single_word": false,
      "lstrip": false,
      "rstrip": false,
      "normalized": true,
      "special": false
    },
    {
      "id": 32021,
      "content": "<|EOT|>",
      "single_word": false,
      "lstrip": false,
      "rstrip": false,
      "normalized": true,
      "special": true
    }
  ],
  "normalizer": {
    "type": "Sequence",
    "normalizers": []
  },
  "pre_tokenizer": {
    "type": "Sequence",
    "pretokenizers": [
      {
        "type": "Split",
        "pattern": {
          "Regex": "[\r\n]"
        },
        "behavior": "Isolated",
        "invert": false
      },
      {
        "type": "Split",
        "pattern": {
          "Regex": "\\s?\\p{L}+"
        },
        "behavior": "Isolated",
        "invert": false
      },
      {
        "type": "Split",
        "pattern": {
          "Regex": "\\s?\\p{P}+"
        },
        "behavior": "Isolated",
        "invert": false
      },
      {
        "type": "Split",
        "pattern": {
          "Regex": "[一-龥ࠀ-一가-퟿]+"
        },
        "behavior": "Isolated",
        "invert": false
      },
      {
        "type": "Digits",
        "individual_digits": true
      },
      {
        "type": "ByteLevel",
        "add_prefix_space": false,
        "trim_offsets": true,
        "use_regex": false
      }
    ]
  },
  "post_processor": {
    "type": "TemplateProcessing",
    "single": [
      {
        "SpecialToken": {
          "id": "<｜begin▁of▁sentence｜>",
          "type_id": 0
        }
      },
      {
        "Sequence": {
          "id": "A",
          "type_id": 0
        }
      }
    ],
    "pair": [
      {
        "SpecialToken": {
          "id": "<｜begin▁of▁sentence｜>",
          "type_id": 0
        }
      },
      {
        "Sequence": {
          "id": "A",
          "type_id": 0
        }
      },
      {
        "SpecialToken": {
          "id": "<｜begin▁of▁sentence｜>",
          "type_id": 1
        }
      },
      {
        "Sequence": {
          "id": "B",
          "type_id": 1
        }
      }
    ],
    "special_tokens": {
      "<｜begin▁of▁sentence｜>": {
        "id": "<｜begin▁of▁sentence｜>",
        "ids": [
          32013
        ],
        "tokens": [
          "<｜begin▁of▁sentence｜>"
        ]
      }
    }
  },
  "decoder": {
    "type": "ByteLevel",
    "add_prefix_space": true,
    "trim_offsets": true,
    "use_regex": true
  },
  "model": {
    "type": "BPE",
    "dropout": null,
    "unk_token": null,
    "continuing_subword_prefix": null,
    "end_of_word_suffix": null,
    "fuse_unk": false,
    "byte_fallback": false,
    "ignore_merges": false,
    "vocab": {
      "!": 0,
      "\"": 1,
      "#": 2,
      "$": 3,
      "%": 4,
      "&": 5,
      "'": 6,
      "(": 7,
      ")": 8,
      "*": 9,
      "+": 10,
      ",": 11,
      "-": 12,
      ".": 13,
      "/": 14,
      "0": 15,
      "1": 16,
      "2": 17,
      "3": 18,
      "4": 19,
      "5": 20,
      "6": 21,
      "7": 22,
      "8": 23,
      "9": 24,
      ":": 25,
      ";": 26,
      "<": 27,
      "=": 28,
      ">": 29,
      "?": 30,
      "@": 31,
      "A": 32,
      "B": 33,
      "C": 34,
      "D": 35,
      "E": 36,
      "F": 37,
      "G": 38,
      "H": 39,
      "I": 40,
      "J": 41,
      "K": 42,
      "L": 43,
      "M": 44,
      "N": 45,
      "O": 46,
      "P": 47,
      "Q": 48,
      "R": 49,
      "S": 50,
      "T": 51,
      "U": 52,
      "V": 53,
      "W": 54,
      "X": 55,
      "Y": 56,
      "Z": 57,
      "[": 58,
      "\\": 59,
      "]": 60,
      "^": 61,
      "_": 62,
      "`": 63,
      "a": 64,
      "b": 65,
      "c": 66,
      "d": 67,
      "e": 68,
      "f": 69,
      "g": 70,
      "h": 71,
      "i": 72,
      "j": 73,
      "k": 74,
      "l": 75,
      "m": 76,
      "n": 77,
      "o": 78,
      "p": 79,
      "q": 80,
      "r": 81,
      "s": 82,
      "t": 83,
      "u": 84,
      "v": 85,
      "w": 86,
      "x": 87,
      "y": 88,
      "z": 89,
      "{": 90,
      "|": 91,
      "}": 92,
      "~": 93,
      "¡": 94,
      "¢": 95,
      "£": 96,
      "¤": 97,
      "¥": 98,
      "¦": 99,
      "§": 100,
      "¨": 101,
      "©": 102,
      "ª": 103,
      "«": 104,
      "¬": 105,
      "®": 106,
      "¯": 107,
      "°": 108,
      "±": 109,
      "²": 110,
      "³": 111,
      "´": 112,
      "µ": 113,
      "¶": 114,
      "·": 115,
      "¸": 116,
      "¹": 117,
      "º": 118,
      "»": 119,
      "¼": 120,
      "½": 121,
      "¾": 122,
      "¿": 123,
      "Â": 124,
      "Ã": 125,
      "Ä": 126,
      "Å": 127,
      "Æ": 128,
      "Ç": 129,
      "È": 130,
      "É": 131,
      "Ê": 132,
      "Ë": 133,
      "Ì": 134,
      "Í": 135,
      "Î": 136,
      "Ï": 137,
      "Ð": 138,
      "Ñ": 139,
      "Ò": 140,
      "Ó": 141,
      "Ô": 142,
      "Õ": 143,
      "Ö": 144,
      "×": 145,
      "Ø": 146,
      "Ù": 147,
      "Ú": 148,
      "Û": 149,
      "Ü": 150,
      "Ý": 151,
      "Þ": 152,
      "ß": 153,
      "à": 154,
      "á": 155,
      "â": 156,
      "ã": 157,
      "ä": 158,
      "å": 159,
      "æ": 160,
      "ç": 161,
      "è": 162,
      "é": 163,
      "ê": 164,
      "ë": 165,
      "ì": 166,
      "í": 167,
      "î": 168,
      "ï": 169,
      "ð": 170,
      "ñ": 171,
      "ò": 172,
      "ó": 173,
      "ô": 174,
      "Ā": 175,
      "ā": 176,
      "Ă": 177,
      "ă": 178,
      "Ą": 179,
      "ą": 180,
      "Ć": 181,
      "ć": 182,
      "Ĉ": 183,
      "ĉ": 184,
      "Ċ": 185,
      "ċ": 186,
      "Č": 187,
      "č": 188,
      "Ď": 189,
      "ď": 190,
      "Đ": 191,
      "đ": 192,
      "Ē": 193,
      "ē": 194,
      "Ĕ": 195,
      "ĕ": 196,
      "Ė": 197,
      "ė": 198,
      "Ę": 199,
      "ę": 200,
      "Ě": 201,
      "ě": 202,
      "Ĝ": 203,
      "ĝ": 204,
      "Ğ": 205,
      "ğ": 206,
      "Ġ": 207,
      "ġ": 208,
      "Ģ": 209,
      "ģ": 210,
      "Ĥ": 211,
      "ĥ": 212,
      "Ħ": 213,
      "ħ": 214,
      "Ĩ": 215,
      "ĩ": 216,
      "Ī": 217,
      "ī": 218,
      "Ĭ": 219,
      "ĭ": 220,
      "Į": 221,
      "į": 222,
      "İ": 223,
      "ı": 224,
      "Ĳ": 225,
      "ĳ": 226,
      "Ĵ": 227,
      "ĵ": 228,
      "Ķ": 229,
      "ķ": 230,
      "ĸ": 231,
      "Ĺ": 232,
      "ĺ": 233,
      "Ļ": 234,
      "ļ": 235,
      "Ľ": 236,
      "ľ": 237,
      "Ŀ": 238,
      "ŀ": 239,
      "Ł": 240,
      "ł": 241,
      "Ń": 242,
      "ĠĠ": 243,
      "Ġt": 244,
      "Ġa": 245,
      "in": 246,
      "he": 247,
      "re": 248,
      "on": 249,
      "er": 250,
      "ĠĠĠĠ": 251,
      "Ġs": 252,
      "at": 253,
      "Ġthe": 254,
      "en": 255,
      "or": 256,
      "es": 257,
      "Ġc": 258,
      "Ġw": 259,
      "it": 260,
      "an": 261,
      "is": 262,
      "Ġd": 263,
      "ou": 264,
      "Ġp": 265,
      "al": 266,
      "Ġf": 267,
      "ar": 268,
      "Ġo": 269,
      "Ġb": 270,
      "ed": 271,
      "ing": 272,
      "Ġm": 273,
      "Ġan": 274,
      "le": 275,
      "Ġto": 276,
      "ion": 277,
      "ic": 278,
      "Ġin": 279,
      "Ġof": 280,
      "as": 281,
      "el": 282,
      "om": 283,
      "Ġl": 284,
      "Ġand": 285,
      "Ġh": 286,
      "ĠÐ": 287,
      "Ġth": 288,
      "ent": 289,
      "et": 290,
      "Ġn": 291,
      "st": 292,
      "Ð°": 293,
      "ĠĠĠĠĠĠĠĠ": 294,
      "ro": 295,
      "ct": 296,
      "il": 297,
      "ä¸": 298,
      "Ġre": 299,
      "Ġe": 300,
      "ot": 301,
      "am": 302,
      "ĠI": 303,
      "id": 304,
      "ac": 305,
      "Ġg": 306,
      "ad": 307,
      "im": 308,
      "un": 309,
      "Ð¸": 310,
      "ig": 311,
      "ve": 312,
      "ol": 313,
      "Ġde": 314,
      "ĠĠĠ": 315,
      "ut": 316,
      "Ġis": 317,
      "Ðµ": 318,
      "us": 319,
      "Ġy": 320,
      "Ð¾": 321,
      "ow": 322,
      "ĠT": 323,
      "ĠS": 324,
      "ÑĤ": 325,
      "ly": 326,
      "Ġfor": 327,
      "qu": 328,
      "ver": 329,
      "Ġbe": 330,
      "Ġon": 331,
      "ur": 332,
      "ay": 333,
      "Ġ(": 334,
      "ation": 335,
      "çļ": 336,
      "çļĦ": 337,
      "ĠA": 338,
      "ĠC": 339,
      "Ġyou": 340,
      "ul": 341,
      "ÑĢ": 342,
      "ãĢ": 343,
      "Ġthat": 344,
      "Ð½": 345,
      "se": 346,
      "ce": 347,
      "ir": 348,
      "ith": 349,
      "âĢ": 350,
      "if": 351,
      "Ġst": 352,
      "Ġv": 353,
      "äº": 354,
      "od": 355,
      "ab": 356,
      "Ġ\\": 357,
      "ch": 358,
      "Ġit": 359,
      "Ġal": 360,
      "ag": 361,
      "Ġhe": 362,
      "ĠM": 363,
      "Ġcon": 364,
      "Ġwith": 365,
      "ter": 366,
      "Ñģ": 367,
      "ri": 368,
      "em": 369,
      "est": 370,
      "Ġ$": 371,
      "Ġas": 372,
      "ap": 373,
      "--": 374,
      "ĠP": 375,
      "Ġwh": 376,
      "um": 377,
      "os": 378,
      "res": 379,
      "ĠB": 380,
      "Ġpro": 381,
      "ist": 382,
      "ht": 383,
      "and": 384,
      "Ġcom": 385,
      "Ġse": 386,
      "ate": 387,
      "pe": 388,
      "ill": 389,
      "ess": 390,
      "æľ": 391,
      "th": 392,
      "up": 393,
      "Ġwe": 394,
      "åı": 395,
      "her": 396,
      "ãĢĤ": 397,
      "ä»": 398,
      "ke": 399,
      "ant": 400,
      "ra": 401,
      "ld": 402,
      "Ġun": 403,
      "oc": 404,
      "Ġ=": 405,
      "out": 406,
      "ers": 407,
      "end": 408,
      "Ġor": 409,
      "Ġex": 410,
      "Ð»": 411,
      "ĠL": 412,
      "ĠD": 413,
      "ĠH": 414,
      "our": 415,
      "ĠF": 416,
      "Ġare": 417,
      "å¤": 418,
      "ore": 419,
      "rom": 420,
      "Ġha": 421,
      "ĠW": 422,
      "Ð²": 423,
      "op": 424,
      "nd": 425,
      "ĠE": 426,
      "Ġr": 427,
      "ĠThe": 428,
      "Ġat": 429,
      "iv": 430,
      "art": 431,
      "ĠR": 432,
      "åħ": 433,
      "nt": 434,
      "all": 435,
      "ĠĠĠĠĠĠĠ": 436,
      "Ġthis": 437,
      "Ġwas": 438,
      "ort": 439,
      "Ġ\"": 440,
      "Ġnot": 441,
      "Ġne": 442,
      "è¿": 443,
      "ain": 444,
      "Ġqu": 445,
      "Ġla": 446,
      "ight": 447,
      "æĺ": 448,
      "pl": 449,
      "Ġus": 450,
      "ction": 451,
      "ĠG": 452,
      "ure": 453,
      "te": 454,
      "å®": 455,
      "Ġen": 456,
      "Ġby": 457,
      "ub": 458,
      "ĉĉ": 459,
      "Ġi": 460,
      "ĠN": 461,
      "pt": 462,
      "Ġhave": 463,
      "Ðº": 464,
      "ity": 465,
      "Ġel": 466,
      "Ġsh": 467,
      "ass": 468,
      "ment": 469,
      "åĪ": 470,
      "ame": 471,
      "ould": 472,
      "Ġfrom": 473,
      "ĠĠĠĠĠĠĠĠĠĠĠĠĠĠĠĠ": 474,
      "ä½": 475,
      "ies": 476,
      ");": 477,
      "åľ": 478,
      "{\\": 479,
      "ine": 480,
      "ia": 481,
      "Ġcan": 482,
      "åĲ": 483,
      "ust": 484,
      "ud": 485,
      "âĢĻ": 486,
      "ell": 487,
      "ive": 488,
      "Ð´": 489,
      "age": 490,
      "ge": 491,
      "ard": 492,
      "og": 493,
      "Ġch": 494,
      "Ġcl": 495,
      "ome": 496,
      "ial": 497,
      "ect": 498,
      "ue": 499,
      "ack": 500,
      "ä¹": 501,
      "æĺ¯": 502,
      "ä¸Ģ": 503,
      "red": 504,
      "ost": 505,
      "ĠO": 506,
      "Ġ{": 507,
      "able": 508,
      "ath": 509,
      "æĪ": 510,
      "Ġper": 511,
      "ich": 512,
      "ind": 513,
      "çĶ": 514,
      "ip": 515,
      "Ġle": 516,
      "å°": 517,
      "Ġyour": 518,
      "Ġall": 519,
      "ie": 520,
      "Ġj": 521,
      "per": 522,
      "Ġme": 523,
      "..": 524,
      "åĬ": 525,
      "Ġtr": 526,
      "av": 527,
      "Ġk": 528,
      "iz": 529,
      "xt": 530,
      "ans": 531,
      "ult": 532,
      "Ġdo": 533,
      "ãĢģ": 534,
      "cl": 535,
      "ff": 536,
      "ast": 537,
      "rou": 538,
      "ç»": 539,
      "Ġwill": 540,
      "ok": 541,
      "Ġwhe": 542,
      "ide": 543,
      "Ġab": 544,
      "Ġbut": 545,
      "The": 546,
      "ite": 547,
      "Ġwor": 548,
      "æĹ": 549,
      "Ã³": 550,
      "ib": 551,
      "ĠÐ½": 552,
      "//": 553,
      "are": 554,
      "Ġso": 555,
      "ak": 556,
      "port": 557,
      "orm": 558,
      "ions": 559,
      "ĠÑģ": 560,
      "Ñı": 561,
      "Ġif": 562,
      "_{": 563,
      "con": 564,
      "ĠJ": 565,
      "cc": 566,
      "Ġ-": 567,
      "Ġpl": 568,
      "int": 569,
      "ä¸į": 570,
      "åĽ": 571,
      "Ġ*": 572,
      "Ġ&": 573,
      "ĠU": 574,
      "ice": 575,
      "Ð¼": 576,
      "to": 577,
      "Ġup": 578,
      "Ġdel": 579,
      "der": 580,
      "de": 581,
      "ace": 582,
      "Ġhis": 583,
      "Ã©": 584,
      "Ġwhich": 585,
      "è¯": 586,
      "ase": 587,
      "Ġcomp": 588,
      "ÑĬ": 589,
      "ime": 590,
      "one": 591,
      "ong": 592,
      "Ġres": 593,
      "ally": 594,
      "æĸ": 595,
      "ä¼": 596,
      "Ġmy": 597,
      "Ġad": 598,
      "Ñĥ": 599,
      "Ð½Ð¸": 600,
      "ile": 601,
      "å¹": 602,
      "ther": 603,
      "Ġam": 604,
      "æľī": 605,
      "æĿ": 606,
      "Ð·": 607,
      "åľ¨": 608,
      "eg": 609,
      "Ġgo": 610,
      "Ġ}": 611,
      "ated": 612,
      "äºĨ": 613,
      "åŃ": 614,
      "ĠÐ¿": 615,
      "ĠÐ½Ð°": 616,
      "ign": 617,
      "act": 618,
      "Ġim": 619,
      "åį": 620,
      "ous": 621,
      "----": 622,
      "ÑĢÐ°": 623,
      "urn": 624,
      "äºº": 625,
      "Ġap": 626,
      "ĠV": 627,
      ").": 628,
      "Ġone": 629,
      "Ġcont": 630,
      "Ġout": 631,
      "ref": 632,
      "gh": 633,
      "ne": 634,
      "è®": 635,
      "ire": 636,
      "Ġno": 637,
      "Ġhas": 638,
      "very": 639,
      "Ġlo": 640,
      "Ġque": 641,
      "ll": 642,
      "æī": 643,
      "iÃ³": 644,
      "ance": 645,
      "ÑĤÐ¾": 646,
      "ake": 647,
      "tr": 648,
      "ÑĤÐ°": 649,
      "),": 650,
      "Ġ'": 651,
      "ÃŃ": 652,
      "Ġthey": 653,
      "ep": 654,
      "ĠĠĠĠĠĠĠĠĠĠĠ": 655,
      "ob": 656,
      "ens": 657,
      "Ġhad": 658,
      "ft": 659,
      "math": 660,
      "å¸": 661,
      "ary": 662,
      "å¾": 663,
      "Ġman": 664,
      "ere": 665,
      "Ġar": 666,
      "pro": 667,
      "the": 668,
      "ang": 669,
      "ry": 670,
      "so": 671,
      "Ãł": 672,
      "ĠTh": 673,
      "du": 674,
      "Ġsu": 675,
      "ail": 676,
      "å·": 677,
      "éĩ": 678,
      "ach": 679,
      "ĠIn": 680,
      "ix": 681,
      "èĢ": 682,
      "Ġany": 683,
      "ĥ½": 684,
      "com": 685,
      "Ġmore": 686,
      "ose": 687,
      "form": 688,
      "ord": 689,
      "ph": 690,
      "Ġdis": 691,
      "Ġpart": 692,
      "å¼": 693,
      "Ġser": 694,
      "ition": 695,
      "ber": 696,
      "åĩ": 697,
      "ress": 698,
      "Ġtheir": 699,
      "Ġdes": 700,
      "ĠÐ¸": 701,
      "ear": 702,
      "get": 703,
      "own": 704,
      "ks": 705,
      "Ġher": 706,
      "Ġes": 707,
      "ents": 708,
      "ĠÐ²": 709,
      "ors": 710,
      "Ð³": 711,
      "å¥": 712,
      "Ġli": 713,
      "ple": 714,
      "ations": 715,
      "ĠK": 716,
      "ount": 717,
      "åĨ": 718,
      "Ã¨": 719,
      "ence": 720,
      "Ð¿": 721,
      "ÑĤÐµ": 722,
      "Ð½Ð°": 723,
      "ound": 724,
      "row": 725,
      "Ñĩ": 726,
      "Ð²Ð°": 727,
      "ely": 728,
      "ru": 729,
      "ĠĠĠĠĠ": 730,
      "Ġsp": 731,
      "ma": 732,
      "Ġsa": 733,
      "ode": 734,
      "ical": 735,
      "}\\": 736,
      "è¡": 737,
      "Ġsome": 738,
      "åº": 739,
      "Ġwould": 740,
      "Ġthere": 741,
      "**": 742,
      "éĢ": 743,
      "å¤§": 744,
      "Ġfe": 745,
      "Ġother": 746,
      "ata": 747,
      "Ġget": 748,
      "å¯": 749,
      "Ġwhen": 750,
      "ÑĢÐµ": 751,
      "Ġsc": 752,
      "ject": 753,
      "ree": 754,
      "Ġev": 755,
      "Ġnew": 756,
      "Ġclass": 757,
      "vers": 758,
      "ä¸Ń": 759,
      "ĠÐ¾": 760,
      "Ġtime": 761,
      "ÑĢÐ¸": 762,
      "Ġthem": 763,
      "Ġour": 764,
      "ĠY": 765,
      "çĽ": 766,
      "ick": 767,
      "ype": 768,
      "In": 769,
      "ert": 770,
      "low": 771,
      "ä¸º": 772,
      "Ġwere": 773,
      "Ġwho": 774,
      "åĮ": 775,
      "sp": 776,
      "èµ": 777,
      "Ã©s": 778,
      "reat": 779,
      "==": 780,
      "elf": 781,
      "Ġabout": 782,
      "è¿Ļ": 783,
      "><": 784,
      "lo": 785,
      "âĢľ": 786,
      "ings": 787,
      "turn": 788,
      "Ġpr": 789,
      "ex": 790,
      "Ð±": 791,
      "ink": 792,
      "ays": 793,
      "ä¸ª": 794,
      "ory": 795,
      "è§": 796,
      "ener": 797,
      "Ġbeen": 798,
      "Ġte": 799,
      "Ġag": 800,
      "æĬ": 801,
      "}}": 802,
      "è´": 803,
      "ĠIt": 804,
      "li": 805,
      "nc": 806,
      "lic": 807,
      "æķ": 808,
      "Ġro": 809,
      "ck": 810,
      "ef": 811,
      "ä¸Ĭ": 812,
      "ari": 813,
      "çİ": 814,
      "å¿": 815,
      "ta": 816,
      "Ġva": 817,
      "text": 818,
      "æł": 819,
      "Ġob": 820,
      "Ġ[": 821,
      "()": 822,
      "aus": 823,
      "æĢ": 824,
      "Ġfun": 825,
      "Ġwork": 826,
      "Ġkn": 827,
      "we": 828,
      "ps": 829,
      "ual": 830,
      "åĴ": 831,
      "ÑģÑĤ": 832,
      "Ġlike": 833,
      "Ġshe": 834,
      "Ġalso": 835,
      "Ġpre": 836,
      "èĩ": 837,
      "Ġoff": 838,
      "old": 839,
      "ish": 840,
      "Ġset": 841,
      "Ġbo": 842,
      "rib": 843,
      "wo": 844,
      "vel": 845,
      "æĹ¶": 846,
      "ä»¥": 847,
      "æĪĳ": 848,
      "Ġthan": 849,
      "Ġinst": 850,
      "Ġover": 851,
      "Ġwhat": 852,
      "Ġhim": 853,
      "ild": 854,
      "Ġest": 855,
      "ark": 856,
      "irst": 857,
      "eth": 858,
      "anc": 859,
      "ont": 860,
      "fr": 861,
      "itt": 862,
      "iff": 863,
      "ç§": 864,
      "ec": 865,
      "sc": 866,
      "ock": 867,
      "¦ģ": 868,
      "åİ": 869,
      "hed": 870,
      "Ġspe": 871,
      "ov": 872,
      "les": 873,
      "ĠĠĠĠ<": 874,
      "ons": 875,
      ".\"": 876,
      "gr": 877,
      "Ġinto": 878,
      "Ġval": 879,
      "å±": 880,
      "åĴĮ": 881,
      "ys": 882,
      "tern": 883,
      "æŃ": 884,
      "Ġonly": 885,
      "ÑĨ": 886,
      "âĢĵ": 887,
      "è¦ģ": 888,
      "Ġ/": 889,
      "erm": 890,
      "Ġits": 891,
      "éĿ": 892,
      "ull": 893,
      "æ°": 894,
      "Ġsup": 895,
      "ĠSt": 896,
      "enc": 897,
      "ĠÐº": 898,
      "ove": 899,
      "éĹ": 900,
      "çī": 901,
      "(\\": 902,
      "ĠCh": 903,
      "Ġacc": 904,
      "ug": 905,
      "ific": 906,
      "Ġcol": 907,
      "æĿ¥": 908,
      "als": 909,
      "Ð½Ð¾": 910,
      "lect": 911,
      "Ġgr": 912,
      "yst": 913,
      "å½": 914,
      "put": 915,
      "æĶ": 916,
      "åĪ°": 917,
      "çľ": 918,
      "fter": 919,
      "ade": 920,
      "çº": 921,
      "ä¼ļ": 922,
      "çĶŁ": 923,
      "æ²": 924,
      "ss": 925,
      "egin": 926,
      "Ġneed": 927,
      "å¹´": 928,
      "Ġcomm": 929,
      "Ġthen": 930,
      "Ġuse": 931,
      "åĳ": 932,
      "éĻ": 933,
      "å°±": 934,
      "Ð»Ð¸": 935,
      "hat": 936,
      "pos": 937,
      "ize": 938,
      "Ġ|": 939,
      "Ġhow": 940,
      "èĥ½": 941,
      "ï¼": 942,
      "ĠÐ´": 943,
      "ng": 944,
      "Ġ+": 945,
      "begin": 946,
      "æĥ": 947,
      "Ġjust": 948,
      "Ð¹": 949,
      "\",": 950,
      "è½": 951,
      "bo": 952,
      "any": 953,
      "erv": 954,
      "Ġmod": 955,
      "ÑģÐº": 956,
      "Ġadd": 957,
      "app": 958,
      "ics": 959,
      "iew": 960,
      "ble": 961,
      "oint": 962,
      "ystem": 963,
      "æ³": 964,
      "ict": 965,
      "æ¯": 966,
      "Ġreturn": 967,
      "fig": 968,
      "equ": 969,
      "Ġmay": 970,
      "âĢĿ": 971,
      "Ġdef": 972,
      "Ġbet": 973,
      "iss": 974,
      "Ġco": 975,
      "pect": 976,
      "err": 977,
      "Ã²": 978,
      "Ġtwo": 979,
      "ates": 980,
      "ning": 981,
      "Ġcons": 982,
      "ater": 983,
      "Ġpos": 984,
      "Ġent": 985,
      "Ġrec": 986,
      "ian": 987,
      "åĽ½": 988,
      "Ġsaid": 989,
      "of": 990,
      "clud": 991,
      "Ġem": 992,
      "Ġbl": 993,
      "ublic": 994,
      "ty": 995,
      "ular": 996,
      "ĠThis": 997,
      "ĠWe": 998,
      "cess": 999,
      "åı¯": 1000,
      "Ġknow": 1001,
      "ough": 1002,
      "Ġpe": 1003,
      "ER": 1004,
      "ient": 1005,
      "pr": 1006,
      "ise": 1007,
      "Ġyear": 1008,
      "Ġdiff": 1009,
      "ption": 1010,
      "Ġass": 1011,
      "aciÃ³": 1012,
      "Ġ<": 1013,
      "igh": 1014,
      "unt": 1015,
      "Ġsee": 1016,
      "Ġform": 1017,
      "Ġ.": 1018,
      "Ġfirst": 1019,
      "Ġshould": 1020,
      "ä¹Ł": 1021,
      "Ġfin": 1022,
      "Ġcould": 1023,
      "ÐµÐ½": 1024,
      "åĩº": 1025,
      "_{\\": 1026,
      "line": 1027,
      "ĠÐµ": 1028,
      "ause": 1029,
      "oth": 1030,
      "right": 1031,
      "ĠĠĠĠĠĠ": 1032,
      "round": 1033,
      "Ġop": 1034,
      "æŀ": 1035,
      "abel": 1036,
      "sh": 1037,
      "Ġles": 1038,
      "--------": 1039,
      "ats": 1040,
      "æİ": 1041,
      "Ġreg": 1042,
      "its": 1043,
      "ĠĠĠĠĠĠĠĠĠĠĠĠĠĠĠ": 1044,
      "Ġact": 1045,
      "Ġuna": 1046,
      "iel": 1047,
      "cal": 1048,
      "ible": 1049,
      "ied": 1050,
      "ĠÐ³": 1051,
      "Ġbec": 1052,
      "ange": 1053,
      "ä¿": 1054,
      "ÑĢÐ¾": 1055,
      "amb": 1056,
      "å¤ļ": 1057,
      "par": 1058,
      "}{": 1059,
      "Ġback": 1060,
      "ĠHe": 1061,
      "ada": 1062,
      "Ġamb": 1063,
      "Ġwhere": 1064,
      "wn": 1065,
      "Ġlook": 1066,
      "Ġthese": 1067,
      "åıĳ": 1068,
      "Ġ//": 1069,
      "Ġ_": 1070,
      "å¯¹": 1071,
      "Ġfol": 1072,
      "å¦": 1073,
      "uch": 1074,
      "ä»¬": 1075,
      "ĉĉĉĉ": 1076,
      "},": 1077,
      "Ġvery": 1078,
      "ource": 1079,
      "Th": 1080,
      "çĶ¨": 1081,
      "Ġke": 1082,
      ",\"": 1083,
      "Ġrel": 1084,
      "ful": 1085,
      "å®¶": 1086,
      "ring": 1087,
      "ond": 1088,
      "Ġunder": 1089,
      "Ð¶": 1090,
      "Ġrem": 1091,
      "Ġprov": 1092,
      "Ġmost": 1093,
      "è¾": 1094,
      "æĭ": 1095,
      "Ġsub": 1096,
      "Ġint": 1097,
      "Ġmake": 1098,
      "ax": 1099,
      "æĦ": 1100,
      "åĲİ": 1101,
      "ĠĠĠĠĠĠĠĠ<": 1102,
      "ious": 1103,
      "æµ": 1104,
      "hen": 1105,
      "rough": 1106,
      "cre": 1107,
      "div": 1108,
      "Ġsuch": 1109,
      "ield": 1110,
      "èĩª": 1111,
      "io": 1112,
      "set": 1113,
      "Ġpar": 1114,
      "Ġdon": 1115,
      "æĪĲ": 1116,
      "Ġsim": 1117,
      "Ġph": 1118,
      "ood": 1119,
      "Ġwant": 1120,
      "frac": 1121,
      "é¢": 1122,
      "åĵ": 1123,
      "èĤ": 1124,
      "è¡Į": 1125,
      "Ġcur": 1126,
      "ĠÐ¾ÑĤ": 1127,
      "ating": 1128,
      "Ġevery": 1129,
      "Ġnow": 1130,
      "çŃ": 1131,
      "Ġcor": 1132,
      "Ġconst": 1133,
      "Ġwell": 1134,
      "æ¬": 1135,
      "åī": 1136,
      "riv": 1137,
      "imes": 1138,
      "arg": 1139,
      "ĠÐ·": 1140,
      "Ġway": 1141,
      "rit": 1142,
      "oy": 1143,
      "rm": 1144,
      "ä»ĸ": 1145,
      "ave": 1146,
      "ä½ľ": 1147,
      "ä¸ļ": 1148,
      "erson": 1149,
      "Ġtrans": 1150,
      "ople": 1151,
      "ues": 1152,
      "ä¸ĭ": 1153,
      "IN": 1154,
      "Ġfunction": 1155,
      "other": 1156,
      "åŃ¦": 1157,
      "çĲ": 1158,
      "Ġsm": 1159,
      "let": 1160,
      "::": 1161,
      "Ġgener": 1162,
      "ren": 1163,
      "Ġafter": 1164,
      "Ġbu": 1165,
      "ures": 1166,
      "æĮ": 1167,
      "ica": 1168,
      "resent": 1169,
      "äºİ": 1170,
      "Ġ@": 1171,
      "Ð¸Ñı": 1172,
      "ower": 1173,
      "éĺ": 1174,
      "ork": 1175,
      "Ġatt": 1176,
      "ution": 1177,
      "ments": 1178,
      "Ġfollow": 1179,
      "self": 1180,
      "Ġnum": 1181,
      "Ġthrough": 1182,
      "',": 1183,
      "åľ°": 1184,
      "eq": 1185,
      "è¿ĩ": 1186,
      "read": 1187,
      "cite": 1188,
      "Ġdata": 1189,
      "Ġdiffere": 1190,
      "Ġ:": 1191,
      "rent": 1192,
      "Ġinter": 1193,
      "ĠÐ¿Ð¾": 1194,
      "(\"": 1195,
      "Ġsol": 1196,
      "ĠÐ¼": 1197,
      "ĠUn": 1198,
      "Ġhel": 1199,
      "Âł": 1200,
      "St": 1201,
      "...": 1202,
      "åŃĲ": 1203,
      "Ġprodu": 1204,
      "Ġgood": 1205,
      "label": 1206,
      "ward": 1207,
      "Ġname": 1208,
      "åģ": 1209,
      "ÑĦ": 1210,
      "ily": 1211,
      "led": 1212,
      "Ġdid": 1213,
      "Ġdoes": 1214,
      "hes": 1215,
      "ract": 1216,
      "quest": 1217,
      "ices": 1218,
      "Ġused": 1219,
      "éĥ½": 1220,
      "Ġdown": 1221,
      "})": 1222,
      "Ġend": 1223,
      "air": 1224,
      "eng": 1225,
      "Ġgreat": 1226,
      "ray": 1227,
      "Ġresult": 1228,
      "ev": 1229,
      "plic": 1230,
      "ins": 1231,
      "Ġlong": 1232,
      "ĠÐ·Ð°": 1233,
      "Ġeven": 1234,
      "atch": 1235,
      "ON": 1236,
      "mathb": 1237,
      "uc": 1238,
      "ife": 1239,
      "ility": 1240,
      "Ġgu": 1241,
      "Ġusing": 1242,
      "Ġpeople": 1243,
      "Ġsame": 1244,
      "Ġels": 1245,
      "åĬ¨": 1246,
      "éģ": 1247,
      "å¥½": 1248,
      "ative": 1249,
      "eta": 1250,
      "fore": 1251,
      "rap": 1252,
      "ting": 1253,
      "ym": 1254,
      "ĠYou": 1255,
      "çİ°": 1256,
      "ident": 1257,
      "ash": 1258,
      "Ġdet": 1259,
      "ool": 1260,
      "æĸ¹": 1261,
      "Ġac": 1262,
      "not": 1263,
      "Ġmuch": 1264,
      "Ġcre": 1265,
      "nce": 1266,
      "ts": 1267,
      "ator": 1268,
      "Ð»Ðµ": 1269,
      "Ġpublic": 1270,
      "ĠIf": 1271,
      "Ġread": 1272,
      "Ġfind": 1273,
      "ars": 1274,
      "Ġserv": 1275,
      "Ġfl": 1276,
      "Ġcap": 1277,
      "arch": 1278,
      "ament": 1279,
      "Ġcall": 1280,
      "Ð²Ðµ": 1281,
      "æ¸": 1282,
      "Ġhere": 1283,
      "val": 1284,
      "çĤ": 1285,
      "ÐºÐ°": 1286,
      "åĪĨ": 1287,
      "ities": 1288,
      "els": 1289,
      "amp": 1290,
      "æ±": 1291,
      "ern": 1292,
      "();": 1293,
      "Ġshow": 1294,
      "Ġhand": 1295,
      "ages": 1296,
      "æ´": 1297,
      "irect": 1298,
      "over": 1299,
      "Ġspec": 1300,
      "Ð»Ð°": 1301,
      "Ġdist": 1302,
      "ince": 1303,
      "èĢĮ": 1304,
      "ew": 1305,
      "ĠAnd": 1306,
      "ÑĤÐ¸": 1307,
      "Ġagain": 1308,
      "Ġext": 1309,
      "å°ı": 1310,
      "Ġmany": 1311,
      "bre": 1312,
      "ml": 1313,
      "col": 1314,
      "Ġsystem": 1315,
      "../": 1316,
      "Ġeach": 1317,
      "é«": 1318,
      "ght": 1319,
      "mer": 1320,
      "Ġbefore": 1321,
      "ç»ı": 1322,
      "Ñī": 1323,
      "Ġloc": 1324,
      "Ġref": 1325,
      "ier": 1326,
      "Ġright": 1327,
      "Ġstart": 1328,
      "é«ĺ": 1329,
      "ased": 1330,
      "ç«": 1331,
      "å¾Ĺ": 1332,
      "Ã§": 1333,
      "Ġcar": 1334,
      "essage": 1335,
      "Ġinv": 1336,
      "ner": 1337,
      "be": 1338,
      "ined": 1339,
      "Ð´Ð¸": 1340,
      "Ġhelp": 1341,
      "å¿ĥ": 1342,
      "ript": 1343,
      "Ġmin": 1344,
      "åŁ": 1345,
      "è·": 1346,
      "æĽ": 1347,
      "Ġline": 1348,
      "left": 1349,
      "éķ": 1350,
      "day": 1351,
      "Ġeff": 1352,
      "ever": 1353,
      "éĿ¢": 1354,
      "Ġtra": 1355,
      "da": 1356,
      "ä¾": 1357,
      "ä¹ĭ": 1358,
      "ĠÑģÐµ": 1359,
      "ween": 1360,
      "Ñħ": 1361,
      "era": 1362,
      "ather": 1363,
      "Ġbel": 1364,
      "è¯´": 1365,
      "ĠCom": 1366,
      "ä½ł": 1367,
      "Ġbecause": 1368,
      "RE": 1369,
      "ement": 1370,
      "Ġx": 1371,
      "Ġown": 1372,
      "Ġthink": 1373,
      "aking": 1374,
      "We": 1375,
      "ç½": 1376,
      "è¿ĺ": 1377,
      "ĠPro": 1378,
      "Ġpol": 1379,
      "It": 1380,
      "çĿ": 1381,
      "olog": 1382,
      "Ð²Ð¾": 1383,
      "atic": 1384,
      "mathcal": 1385,
      "å¼Ģ": 1386,
      "ature": 1387,
      "å·¥": 1388,
      "ho": 1389,
      "Ġinclud": 1390,
      "ĠAl": 1391,
      "AT": 1392,
      "å¤©": 1393,
      "åĢ": 1394,
      "ead": 1395,
      "Ġmade": 1396,
      "å®ŀ": 1397,
      "tt": 1398,
      "æĸ°": 1399,
      "ms": 1400,
      "Ġstr": 1401,
      "pend": 1402,
      "Ġche": 1403,
      "Ġrun": 1404,
      "åĬĽ": 1405,
      "way": 1406,
      ",\\": 1407,
      "Ġaut": 1408,
      "man": 1409,
      "å¦Ĥ": 1410,
      "cond": 1411,
      "Ġ=Ġ": 1412,
      "oid": 1413,
      "Ġpoint": 1414,
      "ider": 1415,
      "ute": 1416,
      "Ġfr": 1417,
      "}.": 1418,
      "la": 1419,
      "Ġgiv": 1420,
      "ton": 1421,
      "ale": 1422,
      "åħ¬": 1423,
      "tain": 1424,
      "ery": 1425,
      "Pro": 1426,
      "ruct": 1427,
      "ST": 1428,
      "====": 1429,
      "Ġbeing": 1430,
      "ittle": 1431,
      "Ġvalue": 1432,
      "Ġbetween": 1433,
      "ank": 1434,
      "))": 1435,
      "equation": 1436,
      "__": 1437,
      "æľĢ": 1438,
      "ĠX": 1439,
      "åħ¨": 1440,
      "Ġrep": 1441,
      "Ġdifferent": 1442,
      "Ġtype": 1443,
      "ines": 1444,
      "Ġpass": 1445,
      "ants": 1446,
      "å¾Ī": 1447,
      "ç¾": 1448,
      "å¸Ĥ": 1449,
      "Ġdec": 1450,
      "è¿Ľ": 1451,
      "Ġcase": 1452,
      "Ġhigh": 1453,
      "Ġthose": 1454,
      "Ġmon": 1455,
      "Ġfam": 1456,
      "ness": 1457,
      "ots": 1458,
      "for": 1459,
      "Ġed": 1460,
      "tring": 1461,
      "Ġfil": 1462,
      "è¶": 1463,
      "iqu": 1464,
      "Ġsign": 1465,
      "ĠEl": 1466,
      "ĠĠĠĠĠĠĠĠĠĠĠĠĠĠĠĠĠĠĠĠĠĠĠĠĠĠĠĠĠĠĠĠ": 1467,
      "ĠBut": 1468,
      "ric": 1469,
      "Ġwhile": 1470,
      "Ġexper": 1471,
      "æĹ¥": 1472,
      "pon": 1473,
      "Ġsay": 1474,
      "åīį": 1475,
      "press": 1476,
      "ctions": 1477,
      "formation": 1478,
      "roup": 1479,
      "Ġinte": 1480,
      "ÑĬÑĢ": 1481,
      "ç®": 1482,
      "ĠÃ©s": 1483,
      "Ġav": 1484,
      "Ġperson": 1485,
      "Ġday": 1486,
      "ĠFor": 1487,
      "Ex": 1488,
      "çĲĨ": 1489,
      "Ġvari": 1490,
      "ethod": 1491,
      "Ġdi": 1492,
      "ually": 1493,
      "Ġ#": 1494,
      "ames": 1495,
      "Ġfound": 1496,
      "('": 1497,
      "éĥ": 1498,
      "å®ļ": 1499,
      "åĲĮ": 1500,
      "ample": 1501,
      "Ð¼Ð°": 1502,
      "æ³ķ": 1503,
      "****": 1504,
      "me": 1505,
      "ä½ĵ": 1506,
      "til": 1507,
      "ouse": 1508,
      "Ġequ": 1509,
      "Ġstud": 1510,
      "dd": 1511,
      "Ġproble": 1512,
      "min": 1513,
      "ç¬": 1514,
      "vent": 1515,
      "ces": 1516,
      "Ġlist": 1517,
      "çŁ": 1518,
      "Ġsom": 1519,
      "æĻ": 1520,
      "Ġtake": 1521,
      "AR": 1522,
      "name": 1523,
      "è½¦": 1524,
      "Con": 1525,
      "Ġmust": 1526,
      "here": 1527,
      "ited": 1528,
      "çŃī": 1529,
      "Ġplay": 1530,
      "}(": 1531,
      "çľĭ": 1532,
      "çĦ": 1533,
      "è°": 1534,
      "LE": 1535,
      "ody": 1536,
      "Ð»Ð¾": 1537,
      "rest": 1538,
      "Ġind": 1539,
      "Ġposs": 1540,
      "span": 1541,
      "ets": 1542,
      "ĠQ": 1543,
      "Ġhav": 1544,
      "und": 1545,
      "uring": 1546,
      "Ġyears": 1547,
      "æīĢ": 1548,
      "åħ¶": 1549,
      "Ġ||": 1550,
      "def": 1551,
      "Ð´Ð°": 1552,
      "itat": 1553,
      "Ġlast": 1554,
      "Ġchar": 1555,
      "Ġinstall": 1556,
      "Ġrequ": 1557,
      "iness": 1558,
      "This": 1559,
      "less": 1560,
      "land": 1561,
      "é£": 1562,
      "this": 1563,
      "Ġboth": 1564,
      "}_": 1565,
      "ought": 1566,
      "ĠAr": 1567,
      "pre": 1568,
      "Ġsur": 1569,
      "Ð¸ÑĤÐµ": 1570,
      "Ġbr": 1571,
      "Ġerr": 1572,
      "untu": 1573,
      "ĠĠĠĠĠĠĠĠĠ": 1574,
      "Ġmat": 1575,
      "Ġlittle": 1576,
      "aut": 1577,
      "inc": 1578,
      "ional": 1579,
      "sub": 1580,
      "çĤ¹": 1581,
      "Ġreal": 1582,
      "gan": 1583,
      "Ġstill": 1584,
      "Ġ--": 1585,
      "ired": 1586,
      "ument": 1587,
      "inal": 1588,
      "work": 1589,
      "ense": 1590,
      "éķ¿": 1591,
      "åĿ": 1592,
      "Ð½Ðµ": 1593,
      "Ġnumber": 1594,
      "èĢħ": 1595,
      "ves": 1596,
      "cept": 1597,
      "Ġbest": 1598,
      "äºĭ": 1599,
      "Ġrest": 1600,
      "Ãº": 1601,
      "idth": 1602,
      "ized": 1603,
      "ä¸Ģä¸ª": 1604,
      "indow": 1605,
      "Ġbus": 1606,
      "Ġdisc": 1607,
      "éĤ": 1608,
      "ÑĪ": 1609,
      "ä¸İ": 1610,
      "æı": 1611,
      "alk": 1612,
      "Ġdels": 1613,
      "Ã¨nc": 1614,
      "://": 1615,
      "ational": 1616,
      "cent": 1617,
      "æľº": 1618,
      "pha": 1619,
      "ĠÐ¡": 1620,
      "part": 1621,
      "æĥħ": 1622,
      "ply": 1623,
      "Ġlet": 1624,
      "åĲĪ": 1625,
      "ee": 1626,
      "Ġinf": 1627,
      "ÑĩÐµ": 1628,
      "ava": 1629,
      "ience": 1630,
      "Ġmem": 1631,
      "Ġterm": 1632,
      "ĠAn": 1633,
      "æľ¬": 1634,
      "ÐºÐ¾": 1635,
      "irc": 1636,
      "èĬ": 1637,
      "bl": 1638,
      "ced": 1639,
      "äº§": 1640,
      "Ġ*/": 1641,
      "Ġcurrent": 1642,
      "çĿĢ": 1643,
      "gram": 1644,
      "br": 1645,
      "Ġtoo": 1646,
      "çĦ¶": 1647,
      "Ã¡": 1648,
      "Ġgl": 1649,
      "Ġvol": 1650,
      "éĹ´": 1651,
      "ä¸»": 1652,
      "éĽ": 1653,
      "Ġwr": 1654,
      "èī": 1655,
      "ason": 1656,
      "æľĪ": 1657,
      "Ġpartic": 1658,
      "Ġimport": 1659,
      "Ġmight": 1660,
      "arn": 1661,
      "æį": 1662,
      "Ġins": 1663,
      "æ²¡": 1664,
      "é¡": 1665,
      "Ġwithout": 1666,
      "ared": 1667,
      "ault": 1668,
      "Ġvis": 1669,
      "Ġz": 1670,
      "å½ĵ": 1671,
      "##": 1672,
      "éĩĮ": 1673,
      "Â·": 1674,
      "Ġtry": 1675,
      "æ¶": 1676,
      "bar": 1677,
      "å§": 1678,
      "ote": 1679,
      "éĥ¨": 1680,
      "éļ": 1681,
      "ĠLa": 1682,
      "Ġcount": 1683,
      "Ġtem": 1684,
      "ser": 1685,
      "ĠÐ¿ÑĢÐµ": 1686,
      "ways": 1687,
      "alpha": 1688,
      "ina": 1689,
      "Ð³Ð°": 1690,
      "ades": 1691,
      "OR": 1692,
      "pec": 1693,
      "Ġprocess": 1694,
      "åľº": 1695,
      "tic": 1696,
      "åĬł": 1697,
      "Com": 1698,
      "ä½Ĩ": 1699,
      "ĠÐ±": 1700,
      "çĪ": 1701,
      "aj": 1702,
      "Ġll": 1703,
      "Ġele": 1704,
      "Ġold": 1705,
      "Ġdirect": 1706,
      "Ġfact": 1707,
      "velop": 1708,
      "ten": 1709,
      "ters": 1710,
      "rop": 1711,
      "Ġhome": 1712,
      "ä¹Ī": 1713,
      "Ġopen": 1714,
      "ven": 1715,
      "Ġve": 1716,
      "ĠHow": 1717,
      "ÑĨÐ¸": 1718,
      "Ġtest": 1719,
      "Ġlife": 1720,
      "æĢ§": 1721,
      "ç¨": 1722,
      "åĽł": 1723,
      "ĠÐºÐ¾": 1724,
      "ĠAs": 1725,
      "Ġword": 1726,
      "åĮĸ": 1727,
      "Ġappro": 1728,
      "éĩį": 1729,
      "ext": 1730,
      "ething": 1731,
      "EN": 1732,
      "co": 1733,
      "åĵģ": 1734,
      "td": 1735,
      "Ġmen": 1736,
      "Name": 1737,
      "ann": 1738,
      "Ġmed": 1739,
      "ished": 1740,
      "åħ³": 1741,
      "Ġcle": 1742,
      "AL": 1743,
      "Ġseem": 1744,
      "orn": 1745,
      "rol": 1746,
      "ç¤": 1747,
      "Ġinformation": 1748,
      "ĉĉĉ": 1749,
      "az": 1750,
      "éģĵ": 1751,
      "Ġsmall": 1752,
      "Ġfile": 1753,
      "ior": 1754,
      "èµ·": 1755,
      ")\\": 1756,
      "ried": 1757,
      "Ġpost": 1758,
      "ross": 1759,
      "æ¯Ķ": 1760,
      "add": 1761,
      "oci": 1762,
      "erg": 1763,
      "ases": 1764,
      "arm": 1765,
      "au": 1766,
      "riend": 1767,
      "load": 1768,
      "èģ": 1769,
      "akes": 1770,
      "oot": 1771,
      "):": 1772,
      "ved": 1773,
      "Ġdesc": 1774,
      "ĠSh": 1775,
      "åĨħ": 1776,
      "bs": 1777,
      "yp": 1778,
      "html": 1779,
      "inu": 1780,
      "Ġself": 1781,
      "thing": 1782,
      "Ġcent": 1783,
      "mod": 1784,
      "ek": 1785,
      "Ġquest": 1786,
      ".,": 1787,
      "va": 1788,
      "Ġcour": 1789,
      "ç§į": 1790,
      "æĽ´": 1791,
      "elta": 1792,
      "alse": 1793,
      "arc": 1794,
      "ambda": 1795,
      "ID": 1796,
      "pi": 1797,
      "Ġconf": 1798,
      "Ġplace": 1799,
      "../../": 1800,
      "ives": 1801,
      "éĢļ": 1802,
      "ustom": 1803,
      "ides": 1804,
      "éĶ": 1805,
      "gg": 1806,
      "æĪĳä»¬": 1807,
      "ĠmÃ©s": 1808,
      "Ġra": 1809,
      "lease": 1810,
      "Ġdesign": 1811,
      "ware": 1812,
      "Ġpower": 1813,
      "ĠCon": 1814,
      "åº¦": 1815,
      "Ġproper": 1816,
      "ĠĠĠĠĠĠĠĠĠĠĠĠĠĠĠĠĠĠĠ": 1817,
      "åİ»": 1818,
      "Ġpresent": 1819,
      "view": 1820,
      "æŀľ": 1821,
      "ĠÐ°": 1822,
      "nect": 1823,
      "ĠÐŁ": 1824,
      "Id": 1825,
      "Ġorder": 1826,
      "å»": 1827,
      "sum": 1828,
      "new": 1829,
      "Ġeas": 1830,
      "trans": 1831,
      "Ġhapp": 1832,
      "å·±": 1833,
      "Ġcr": 1834,
      "Ġworld": 1835,
      "rem": 1836,
      "{-": 1837,
      "Ð²Ð¸": 1838,
      "ĉ}": 1839,
      "If": 1840,
      "å°Ĩ": 1841,
      "ç©": 1842,
      "æ°´": 1843,
      "atur": 1844,
      "çĻ": 1845,
      "Ġthree": 1846,
      "æĹł": 1847,
      "Ġsupport": 1848,
      "ivers": 1849,
      "ç¾İ": 1850,
      "ĠFr": 1851,
      "arge": 1852,
      "Ġfew": 1853,
      "ĠCl": 1854,
      "ertain": 1855,
      "Ġsecond": 1856,
      "Ġcome": 1857,
      "Ġnever": 1858,
      "Ġchild": 1859,
      "ccess": 1860,
      "Ġtop": 1861,
      "cur": 1862,
      "amma": 1863,
      "Ġgoing": 1864,
      "éĤ£": 1865,
      "Ġsomething": 1866,
      "æŁ": 1867,
      "åı¯ä»¥": 1868,
      "El": 1869,
      "apt": 1870,
      "SE": 1871,
      "umn": 1872,
      "lation": 1873,
      "ered": 1874,
      "Ġoper": 1875,
      "uss": 1876,
      "alth": 1877,
      "amet": 1878,
      "back": 1879,
      "èĩªå·±": 1880,
      "var": 1881,
      "å¢": 1882,
      "arly": 1883,
      "Ġfollowing": 1884,
      "Ġide": 1885,
      "åħ¥": 1886,
      "vert": 1887,
      "Ġbre": 1888,
      "To": 1889,
      "version": 1890,
      "ped": 1891,
      "import": 1892,
      "ality": 1893,
      "å¸¸": 1894,
      "ify": 1895,
      "Ġsl": 1896,
      "æīĭ": 1897,
      "Ġet": 1898,
      "åĮº": 1899,
      "ream": 1900,
      "raph": 1901,
      "æł·": 1902,
      "Ġanother": 1903,
      "_\\": 1904,
      "source": 1905,
      "Ġdev": 1906,
      "Ġhead": 1907,
      "ency": 1908,
      "Ġ\\\\": 1909,
      "esc": 1910,
      "çķ": 1911,
      "Ġreally": 1912,
      "ik": 1913,
      "Ġhref": 1914,
      "Ch": 1915,
      "ĠRe": 1916,
      "Ġtrue": 1917,
      "Ġprof": 1918,
      "æĸĩ": 1919,
      "Type": 1920,
      "æģ": 1921,
      "Ġsk": 1922,
      "ists": 1923,
      "å¤ĸ": 1924,
      "æ¬¡": 1925,
      "ä¸ī": 1926,
      "ä½į": 1927,
      "reg": 1928,
      "itor": 1929,
      "Ġeffect": 1930,
      "ç³": 1931,
      "Ġproduct": 1932,
      "yn": 1933,
      "AN": 1934,
      "mu": 1935,
      "Ġturn": 1936,
      "çĹ": 1937,
      "Ġ>": 1938,
      "æĦı": 1939,
      "éħ": 1940,
      "Ġopt": 1941,
      "Ð´Ðµ": 1942,
      "Ġpur": 1943,
      "è¢": 1944,
      "ĠThey": 1945,
      "by": 1946,
      "Ġput": 1947,
      "Ġalways": 1948,
      "äºĽ": 1949,
      "ÑģÐºÐ¸": 1950,
      "wh": 1951,
      "Ġsince": 1952,
      "æĺİ": 1953,
      "éľ": 1954,
      "çĸ": 1955,
      "?\"": 1956,
      "reen": 1957,
      "éĩı": 1958,
      "Ġmain": 1959,
      "ä»İ": 1960,
      "Ġsw": 1961,
      "âĢĶ": 1962,
      "ott": 1963,
      "ger": 1964,
      "çĽ¸": 1965,
      "Ar": 1966,
      "Ġstate": 1967,
      "âĢŀ": 1968,
      "Ġelse": 1969,
      "comm": 1970,
      "ĠZ": 1971,
      "ĠSe": 1972,
      "Ġaround": 1973,
      "ask": 1974,
      "Ġid": 1975,
      "Ġinde": 1976,
      "ĠDe": 1977,
      "For": 1978,
      "att": 1979,
      "son": 1980,
      "arent": 1981,
      "Cl": 1982,
      "Ð½Ð¸Ñı": 1983,
      "date": 1984,
      "Ġmark": 1985,
      "èº": 1986,
      "por": 1987,
      "chool": 1988,
      "ï¼Ľ": 1989,
      "ism": 1990,
      "ien": 1991,
      "æıĲ": 1992,
      "mathbb": 1993,
      "sw": 1994,
      "ining": 1995,
      "ĠNew": 1996,
      "message": 1997,
      "Ġallow": 1998,
      "yle": 1999,
      "Ġmet": 2000,
      "Ġthings": 2001,
      "item": 2002,
      "itz": 2003,
      "----------------": 2004,
      "String": 2005,
      "str": 2006,
      "Ġbetter": 2007,
      "Ġmodel": 2008,
      "stand": 2009,
      "Ġfield": 2010,
      "æĥ³": 2011,
      "Ġlead": 2012,
      "ole": 2013,
      "ope": 2014,
      "med": 2015,
      "chn": 2016,
      "Ġgiven": 2017,
      "Al": 2018,
      "roll": 2019,
      "ering": 2020,
      "Ġadv": 2021,
      "log": 2022,
      "ization": 2023,
      "raw": 2024,
      "ç¬¬": 2025,
      "igma": 2026,
      "Ġstand": 2027,
      "Ġcond": 2028,
      "}_{": 2029,
      "ified": 2030,
      "Ġprogram": 2031,
      "Ð¼Ðµ": 2032,
      "æľŁ": 2033,
      "Ġdevelop": 2034,
      "play": 2035,
      "ength": 2036,
      "Ġsure": 2037,
      "èĲ": 2038,
      "Ġ,": 2039,
      "Ġmethod": 2040,
      "èµĦ": 2041,
      "You": 2042,
      "loc": 2043,
      "Ġ=>": 2044,
      "eps": 2045,
      "èĥ": 2046,
      "Ġmean": 2047,
      "Ġseg": 2048,
      "Ġtot": 2049,
      "Ġcare": 2050,
      "ah": 2051,
      "ither": 2052,
      "Ġupon": 2053,
      "Ġproblem": 2054,
      "ä¿Ŀ": 2055,
      "Ġvan": 2056,
      "Ġpat": 2057,
      "Ġpres": 2058,
      "ĠThere": 2059,
      "çĥ": 2060,
      "ĠÐļ": 2061,
      "Ġhard": 2062,
      "omen": 2063,
      "Res": 2064,
      "ception": 2065,
      "ĠEx": 2066,
      "oss": 2067,
      "CT": 2068,
      "Ġ!": 2069,
      "åºĶ": 2070,
      "Ð¿Ð¾": 2071,
      "èĭ": 2072,
      "cul": 2073,
      "ĠSo": 2074,
      "ĠÐ¸Ð·": 2075,
      "Ġask": 2076,
      "åģļ": 2077,
      "ç¥": 2078,
      "Ġsing": 2079,
      "ĉ\\": 2080,
      "ç²": 2081,
      "Ġfree": 2082,
      "ule": 2083,
      "Ġsit": 2084,
      "oh": 2085,
      "serv": 2086,
      "ral": 2087,
      "Ġappe": 2088,
      "èĦ": 2089,
      "Ġgive": 2090,
      "ential": 2091,
      "æ´»": 2092,
      "Ġbusiness": 2093,
      "çĶµ": 2094,
      "ailable": 2095,
      "èº«": 2096,
      "ital": 2097,
      "cont": 2098,
      "Ġperform": 2099,
      "Ġnext": 2100,
      "éĴ": 2101,
      "ron": 2102,
      "Ġwon": 2103,
      "Ġleft": 2104,
      "IT": 2105,
      "ctor": 2106,
      "hor": 2107,
      "code": 2108,
      "htt": 2109,
      "Ġlog": 2110,
      "As": 2111,
      "è®©": 2112,
      "Ġlove": 2113,
      "Ġprim": 2114,
      "ĠIs": 2115,
      "ĠĠĠĠĠĠ<": 2116,
      "ately": 2117,
      "ĠShe": 2118,
      "Ġkey": 2119,
      "å±ķ": 2120,
      "æŃ¤": 2121,
      "ria": 2122,
      "Ġbook": 2123,
      "\"/": 2124,
      "return": 2125,
      "ively": 2126,
      "Ġfriend": 2127,
      "che": 2128,
      "æĦŁ": 2129,
      "åıª": 2130,
      "ĠTr": 2131,
      "Ġsent": 2132,
      "Ġexpl": 2133,
      "å¹³": 2134,
      "Ġten": 2135,
      "Ð¼Ð¸": 2136,
      "ele": 2137,
      "Ġgot": 2138,
      "type": 2139,
      "uff": 2140,
      "ook": 2141,
      "å¹¶": 2142,
      "çĽ®": 2143,
      "Ġlight": 2144,
      "ane": 2145,
      "éĩĳ": 2146,
      "ĠTo": 2147,
      "Ġobject": 2148,
      "ï¼ģ": 2149,
      "SS": 2150,
      "Ġexpect": 2151,
      "ateg": 2152,
      "bol": 2153,
      "aster": 2154,
      "å»º": 2155,
      "org": 2156,
      "çī©": 2157,
      "åĸ": 2158,
      "Ġnon": 2159,
      "itions": 2160,
      "bf": 2161,
      "Ġiss": 2162,
      "ĠĠ<": 2163,
      "ache": 2164,
      "Ġcou": 2165,
      "width": 2166,
      "align": 2167,
      "åķ": 2168,
      "ey": 2169,
      "ĠWh": 2170,
      "ush": 2171,
      "rivate": 2172,
      "Ġcal": 2173,
      "Val": 2174,
      "çģ": 2175,
      "class": 2176,
      "æ·": 2177,
      "ably": 2178,
      "Ġerror": 2179,
      "Ġinterest": 2180,
      "ĠĠĠĠĠĠĠĠĠĠĠĠ<": 2181,
      "Ġcomple": 2182,
      "æ°ĳ": 2183,
      "Ġcho": 2184,
      "ĠMr": 2185,
      "phi": 2186,
      "åĬ¡": 2187,
      "Ġpossible": 2188,
      "Ġ)": 2189,
      "section": 2190,
      "aps": 2191,
      "Ġfull": 2192,
      "mathbf": 2193,
      "Ġexample": 2194,
      "itle": 2195,
      "é©": 2196,
      "erc": 2197,
      "æŃ£": 2198,
      "åıĬ": 2199,
      "ains": 2200,
      "è¢«": 2201,
      "æ²¡æľī": 2202,
      "met": 2203,
      "Ġmar": 2204,
      "Ġfeel": 2205,
      "ç´": 2206,
      "Ġthought": 2207,
      "è¡¨": 2208,
      "åĲį": 2209,
      "ç±": 2210,
      "An": 2211,
      "å®ī": 2212,
      "fe": 2213,
      "hip": 2214,
      "ï¼Ł": 2215,
      "Ġconsider": 2216,
      "lish": 2217,
      "ety": 2218,
      "ries": 2219,
      "Ġ`": 2220,
      "lambda": 2221,
      "èĪ": 2222,
      "ically": 2223,
      "Ref": 2224,
      "Ġcorre": 2225,
      "ĠÐľ": 2226,
      "Ġdat": 2227,
      "bers": 2228,
      "ling": 2229,
      "ĠCol": 2230,
      "Ġkeep": 2231,
      "Ġmult": 2232,
      "erence": 2233,
      "where": 2234,
      "Ġincre": 2235,
      "Ġless": 2236,
      "opt": 2237,
      "Ġable": 2238,
      "ĠÑģÑĬ": 2239,
      ")}": 2240,
      "Ġvar": 2241,
      "Ġseu": 2242,
      "cd": 2243,
      "ww": 2244,
      "List": 2245,
      "RO": 2246,
      "Ġdri": 2247,
      "Ġlevel": 2248,
      "Ġport": 2249,
      "ume": 2250,
      "ĠÐĳ": 2251,
      "Ġchange": 2252,
      "è®¾": 2253,
      "é¦": 2254,
      "aces": 2255,
      "æķ°": 2256,
      "net": 2257,
      "aw": 2258,
      "ided": 2259,
      "Ġrece": 2260,
      "ances": 2261,
      "çł": 2262,
      "inter": 2263,
      "ently": 2264,
      "Ġbro": 2265,
      "åĳĺ": 2266,
      "ift": 2267,
      "åĪ¶": 2268,
      "En": 2269,
      "And": 2270,
      "rist": 2271,
      "arget": 2272,
      "box": 2273,
      "ability": 2274,
      "ĠÐĴ": 2275,
      "face": 2276,
      "top": 2277,
      "ç¼": 2278,
      "æ¡": 2279,
      "param": 2280,
      "den": 2281,
      "ĠEng": 2282,
      "unic": 2283,
      "ĠPl": 2284,
      "ida": 2285,
      "Ġcost": 2286,
      "with": 2287,
      "Ġbuild": 2288,
      "ED": 2289,
      "Ġnet": 2290,
      "Ġlocal": 2291,
      "Ġaway": 2292,
      "rr": 2293,
      "go": 2294,
      "ÑģÐºÐ°": 2295,
      "ÐºÐ¸": 2296,
      "èĢģ": 2297,
      "ana": 2298,
      "Ġproject": 2299,
      "å·²": 2300,
      "ĠÐºÐ°": 2301,
      "Ġstat": 2302,
      "util": 2303,
      "ä¸¤": 2304,
      "fo": 2305,
      "ember": 2306,
      "Ġlarge": 2307,
      "ä¿¡": 2308,
      "-\\": 2309,
      "Ġduring": 2310,
      "mon": 2311,
      "Ġ==": 2312,
      "æĪĸ": 2313,
      "ention": 2314,
      "Ġavailable": 2315,
      "åĪ©": 2316,
      "Ġocc": 2317,
      "Ġpo": 2318,
      "Ġfinal": 2319,
      "Ġlim": 2320,
      "Ġabove": 2321,
      "Ñİ": 2322,
      "ision": 2323,
      "Ġtre": 2324,
      "ĠInd": 2325,
      "Ġcirc": 2326,
      "Ġmom": 2327,
      "Ġenc": 2328,
      "èį": 2329,
      "Ġ{\\": 2330,
      "figure": 2331,
      "Ġcheck": 2332,
      "ology": 2333,
      "Ġview": 2334,
      "Ġpot": 2335,
      "ised": 2336,
      "acter": 2337,
      "çŁ¥": 2338,
      "Ð³Ð¾": 2339,
      "ived": 2340,
      "ado": 2341,
      "ÑĩÐ°": 2342,
      "çī¹": 2343,
      "ĠEn": 2344,
      "Ġwater": 2345,
      "use": 2346,
      "ready": 2347,
      "AM": 2348,
      "ÑĬÐ»": 2349,
      "åħĥ": 2350,
      "ĠAp": 2351,
      "Ġnull": 2352,
      "alt": 2353,
      "æ°Ķ": 2354,
      "Ġchang": 2355,
      "asure": 2356,
      "ĠNo": 2357,
      "Ġfar": 2358,
      "Ġdone": 2359,
      "LL": 2360,
      "ç³»": 2361,
      "ission": 2362,
      "Ġcame": 2363,
      "Ġimportant": 2364,
      "Ġtable": 2365,
      "most": 2366,
      "å¥³": 2367,
      "ables": 2368,
      "ird": 2369,
      "but": 2370,
      "unity": 2371,
      "Ġwithin": 2372,
      "Ġapplic": 2373,
      "Ġcustom": 2374,
      "ilon": 2375,
      "Ġside": 2376,
      "Ġbeh": 2377,
      "ç¡": 2378,
      "Ġpack": 2379,
      "ocument": 2380,
      "head": 2381,
      "Ġaff": 2382,
      "\\\\": 2383,
      "fun": 2384,
      "But": 2385,
      "ges": 2386,
      "vious": 2387,
      "Ð½Ð¸Ðµ": 2388,
      "å°±æĺ¯": 2389,
      "ĠÑĦ": 2390,
      "Ġgeneral": 2391,
      "ails": 2392,
      "Ð¾ÑĢ": 2393,
      "ä»£": 2394,
      "angle": 2395,
      "å£": 2396,
      "Ġdr": 2397,
      "Ġsize": 2398,
      "Ġprob": 2399,
      "Ġtell": 2400,
      "dis": 2401,
      "è·¯": 2402,
      "ç®¡": 2403,
      "ĠGr": 2404,
      "iment": 2405,
      "lection": 2406,
      "uit": 2407,
      "Ġservice": 2408,
      "æķĻ": 2409,
      "ona": 2410,
      "Ġthing": 2411,
      "Ġinc": 2412,
      "Ð¾Ð½": 2413,
      "Ġcalled": 2414,
      "Ġorig": 2415,
      "ĠOn": 2416,
      "ga": 2417,
      "ĠAll": 2418,
      "Ġhum": 2419,
      "ait": 2420,
      "ET": 2421,
      "Ġtext": 2422,
      "ç½ĳ": 2423,
      "Ġnom": 2424,
      "aper": 2425,
      "Ġmov": 2426,
      "Ġver": 2427,
      "ager": 2428,
      "uck": 2429,
      "ç»Ļ": 2430,
      "Cont": 2431,
      "ours": 2432,
      "ĠÑĥ": 2433,
      "Ġpop": 2434,
      "ĠÐ´Ð°": 2435,
      "Ġkind": 2436,
      "ĠÑĢÐ°": 2437,
      "Ġplan": 2438,
      "He": 2439,
      "Ġthough": 2440,
      "Ġhist": 2441,
      "Ġapp": 2442,
      "Ġseva": 2443,
      "ÐµÑĢ": 2444,
      "Ġmeans": 2445,
      "Ġconnect": 2446,
      "key": 2447,
      "data": 2448,
      "Ġart": 2449,
      "ĠWhat": 2450,
      "Ġaccess": 2451,
      "Ġintern": 2452,
      "ãĢĭ": 2453,
      "atal": 2454,
      "ially": 2455,
      "\")": 2456,
      "éĹ®": 2457,
      "ãĢĬ": 2458,
      "no": 2459,
      "ieve": 2460,
      "Ġresults": 2461,
      "')": 2462,
      "ĠWhen": 2463,
      "åı¸": 2464,
      "é¢ĺ": 2465,
      "å¼ı": 2466,
      "è§£": 2467,
      "duct": 2468,
      "Ġlib": 2469,
      "Ġagainst": 2470,
      "Ġanal": 2471,
      "Ġmonth": 2472,
      "fect": 2473,
      "ribut": 2474,
      "Ġtechn": 2475,
      "Tr": 2476,
      "Ġey": 2477,
      "ĠOr": 2478,
      "na": 2479,
      "._": 2480,
      "ĠĠĠĠĠĠĠĠĠĠĠĠ": 2481,
      "array": 2482,
      "ä¸ŃåĽ½": 2483,
      "âĢ¦": 2484,
      "Ġlow": 2485,
      "beta": 2486,
      "Ġhaving": 2487,
      "ĠSc": 2488,
      "æ»": 2489,
      "pose": 2490,
      "Ġfre": 2491,
      "atter": 2492,
      "list": 2493,
      "Ġvoid": 2494,
      "Ġbas": 2495,
      "Ġprom": 2496,
      "ĠÐĲ": 2497,
      "Ġdays": 2498,
      "Ġreport": 2499,
      "æīĵ": 2500,
      "åĪ«": 2501,
      "sigma": 2502,
      "Ġquestion": 2503,
      "aven": 2504,
      "DE": 2505,
      "itive": 2506,
      "Ġspace": 2507,
      "Ġdepend": 2508,
      "ploy": 2509,
      "alf": 2510,
      "translation": 2511,
      "oney": 2512,
      "å¼º": 2513,
      "Ġcommand": 2514,
      "Ġfalse": 2515,
      "Ġenough": 2516,
      "äº¤": 2517,
      "ponse": 2518,
      "Ġprote": 2519,
      "buntu": 2520,
      "gl": 2521,
      "ä»·": 2522,
      "è®¡": 2523,
      "!\"": 2524,
      "Ġevent": 2525,
      "vern": 2526,
      "px": 2527,
      "éª": 2528,
      "éĵ": 2529,
      "IC": 2530,
      "ister": 2531,
      "å°ĳ": 2532,
      "ium": 2533,
      "ret": 2534,
      "äºĮ": 2535,
      "II": 2536,
      "ĠMar": 2537,
      "Ġ(\\": 2538,
      "ards": 2539,
      "çº¿": 2540,
      "*}": 2541,
      "Ð·Ð¸": 2542,
      "åŀ": 2543,
      "Ġgrow": 2544,
      "Ġsum": 2545,
      "ç¦": 2546,
      "Ġteam": 2547,
      "Ġhouse": 2548,
      "pm": 2549,
      "æĤ": 2550,
      "Ġonce": 2551,
      "Ġweek": 2552,
      "Ġroom": 2553,
      "Ġrepresent": 2554,
      "roid": 2555,
      "è£": 2556,
      "Ġbig": 2557,
      "iron": 2558,
      "Ġcertain": 2559,
      "ape": 2560,
      "Ġalready": 2561,
      "Ã¨ncies": 2562,
      "ĠÐ³Ð¾": 2563,
      "that": 2564,
      "ç¨ĭ": 2565,
      "ĠSp": 2566,
      "Ġshort": 2567,
      "ä¸ĩ": 2568,
      "Ġunderstand": 2569,
      "ler": 2570,
      "ä½¿": 2571,
      "lu": 2572,
      "ination": 2573,
      "bt": 2574,
      "ĠAmer": 2575,
      "includ": 2576,
      "irt": 2577,
      "é»": 2578,
      "ples": 2579,
      "Ġparticular": 2580,
      "mathrm": 2581,
      "Ġgroup": 2582,
      "\");": 2583,
      "pond": 2584,
      "AC": 2585,
      "itional": 2586,
      "action": 2587,
      "iles": 2588,
      "my": 2589,
      "å¥¹": 2590,
      "Ġtimes": 2591,
      "Ġlot": 2592,
      "Ġorgan": 2593,
      "Ġcreate": 2594,
      "Ġcompany": 2595,
      "ĠThat": 2596,
      "ĠPr": 2597,
      "ĠAd": 2598,
      "åıĹ": 2599,
      "string": 2600,
      "æİ¥": 2601,
      "èī²": 2602,
      "åİŁ": 2603,
      "ĠUS": 2604,
      "Ġfamily": 2605,
      "Ġyet": 2606,
      "rc": 2607,
      "Col": 2608,
      "ession": 2609,
      "Ġpay": 2610,
      "ended": 2611,
      "Ġgame": 2612,
      "ÑĢÑĥ": 2613,
      "indows": 2614,
      "Ġversion": 2615,
      "èĻ": 2616,
      "Ġcourse": 2617,
      "Ġmus": 2618,
      "Ġexc": 2619,
      "ground": 2620,
      "ilar": 2621,
      "æĮģ": 2622,
      "af": 2623,
      "Ġsuccess": 2624,
      "Ġben": 2625,
      "Ð½Ð°ÑĤÐ°": 2626,
      "Ġexist": 2627,
      "What": 2628,
      "Ġret": 2629,
      "Ġwhy": 2630,
      "Ġu": 2631,
      "Ġuntil": 2632,
      "Ġmor": 2633,
      "Ġever": 2634,
      "sq": 2635,
      "outh": 2636,
      "Ġrespect": 2637,
      "itch": 2638,
      "Ġnight": 2639,
      "Ġaccount": 2640,
      "å¤´": 2641,
      "é£İ": 2642,
      "åĲĳ": 2643,
      "ĠPh": 2644,
      "Ġsat": 2645,
      "æĶ¾": 2646,
      "umber": 2647,
      "ius": 2648,
      "Ġstring": 2649,
      "script": 2650,
      "çľŁ": 2651,
      "ox": 2652,
      "åįģ": 2653,
      "æį®": 2654,
      "Ð°ÑĢ": 2655,
      "Ġelect": 2656,
      "ador": 2657,
      "opy": 2658,
      "åĽŀ": 2659,
      "ĠLe": 2660,
      "Ġwent": 2661,
      "********": 2662,
      "ription": 2663,
      "Ġuser": 2664,
      "========": 2665,
      "iter": 2666,
      "Ġfore": 2667,
      "å·¥ä½ľ": 2668,
      "ĠMy": 2669,
      "Ġbit": 2670,
      "çĽ´": 2671,
      "Ġfour": 2672,
      "ç»ĵ": 2673,
      "word": 2674,
      "Ġcontrol": 2675,
      "]{": 2676,
      "æ¯ı": 2677,
      "ero": 2678,
      "aken": 2679,
      "istr": 2680,
      "Ġworking": 2681,
      "Ġschool": 2682,
      "èĩ³": 2683,
      "Ġbeg": 2684,
      "æľį": 2685,
      "åıĺ": 2686,
      "åŁº": 2687,
      "ĠÂ": 2688,
      "å¤Ħ": 2689,
      "Ġtyp": 2690,
      "Ġmot": 2691,
      "gamma": 2692,
      "ĠUbuntu": 2693,
      "ients": 2694,
      "Ob": 2695,
      "ffic": 2696,
      "Ġlooking": 2697,
      "Ġcomput": 2698,
      "hing": 2699,
      "aterial": 2700,
      "arrow": 2701,
      "ĠÐ¢": 2702,
      "æĬĬ": 2703,
      "By": 2704,
      "],": 2705,
      "atures": 2706,
      "ĠÑĤ": 2707,
      "ones": 2708,
      "Ġworks": 2709,
      "ique": 2710,
      "ci": 2711,
      "}{\\": 2712,
      "IS": 2713,
      "Data": 2714,
      "Ġalong": 2715,
      "side": 2716,
      "aring": 2717,
      "ES": 2718,
      "ping": 2719,
      "¥¿": 2720,
      "Ġselect": 2721,
      "ories": 2722,
      "ley": 2723,
      "ls": 2724,
      "ĠÐ´Ð¾": 2725,
      "ording": 2726,
      "Ġgovern": 2727,
      "lem": 2728,
      "Ġident": 2729,
      "ĠRes": 2730,
      "Ġarg": 2731,
      "è´¨": 2732,
      "ips": 2733,
      "Ð°Ð½": 2734,
      "ĠBe": 2735,
      "Ġexp": 2736,
      "ĠÐĶ": 2737,
      "ION": 2738,
      "ä¸ľ": 2739,
      "Ġprivate": 2740,
      "Ġoften": 2741,
      "Ġlaw": 2742,
      "Ġleast": 2743,
      "ĠCan": 2744,
      "iver": 2745,
      "éľĢ": 2746,
      "Ġleg": 2747,
      "ura": 2748,
      "éĿŀ": 2749,
      "urs": 2750,
      "Ġlay": 2751,
      "Ġeng": 2752,
      "Ġmind": 2753,
      "vol": 2754,
      "urther": 2755,
      "ormal": 2756,
      "ajor": 2757,
      "Ph": 2758,
      "ills": 2759,
      "ĠGod": 2760,
      "Ã³n": 2761,
      "åįķ": 2762,
      "{(": 2763,
      "Ġprovide": 2764,
      "åĲĦ": 2765,
      "æµ·": 2766,
      "Re": 2767,
      "orth": 2768,
      "ÑģÐ¸": 2769,
      "\".": 2770,
      "Ġmoment": 2771,
      "rip": 2772,
      "Ġinput": 2773,
      "HE": 2774,
      "Ġexperience": 2775,
      "Ġhold": 2776,
      "Ġshall": 2777,
      "OT": 2778,
      "ubuntu": 2779,
      "æĶ¶": 2780,
      "sec": 2781,
      "mp": 2782,
      "ocial": 2783,
      "Ġstruct": 2784,
      "now": 2785,
      "ĠÐ¿ÑĢÐ¾": 2786,
      "è¥¿": 2787,
      "Ġmag": 2788,
      "ĠBl": 2789,
      "Ġparamet": 2790,
      "posed": 2791,
      "Ġhealth": 2792,
      "ĠAt": 2793,
      "ĠÑģÐ°": 2794,
      "mit": 2795,
      "Ġreason": 2796,
      "ĠMan": 2797,
      "mb": 2798,
      "éĹ¨": 2799,
      "file": 2800,
      "æĬĢ": 2801,
      "ohn": 2802,
      "ista": 2803,
      "åħ¬åı¸": 2804,
      "Ġsingle": 2805,
      "test": 2806,
      "Ġeither": 2807,
      "How": 2808,
      "rror": 2809,
      "Ġwrit": 2810,
      "Ġinit": 2811,
      "Ġyoung": 2812,
      "ogle": 2813,
      "Ġmill": 2814,
      "Ġseen": 2815,
      "Ġoutput": 2816,
      "åı£": 2817,
      "];": 2818,
      "åĨį": 2819,
      "aph": 2820,
      "udo": 2821,
      "itud": 2822,
      "Ġsever": 2823,
      "value": 2824,
      "iod": 2825,
      "Un": 2826,
      "inst": 2827,
      "\":": 2828,
      "Ġsoft": 2829,
      "Ð´Ð¾": 2830,
      "AP": 2831,
      "rho": 2832,
      "Ġsuper": 2833,
      "const": 2834,
      "Ġdoesn": 2835,
      "Ġansw": 2836,
      "Ġincluding": 2837,
      "leq": 2838,
      "wards": 2839,
      "Ð½Ð¸ÑĤÐµ": 2840,
      "gether": 2841,
      "Ġbased": 2842,
      "Ġtogether": 2843,
      "ouble": 2844,
      "Ġexpress": 2845,
      "delta": 2846,
      "æĶ¿": 2847,
      "do": 2848,
      "Ġitem": 2849,
      "$$": 2850,
      "order": 2851,
      "ification": 2852,
      "Ġenerg": 2853,
      "Ã¯": 2854,
      "acions": 2855,
      "Ġhi": 2856,
      "ambÃ©": 2857,
      "iving": 2858,
      "Ã¨ncia": 2859,
      "ivity": 2860,
      "ĠÐ½Ðµ": 2861,
      "ĠCar": 2862,
      "çĪ±": 2863,
      "Ã¼": 2864,
      "ideo": 2865,
      "Ġfix": 2866,
      "Ġbelow": 2867,
      "sel": 2868,
      "éĻ¢": 2869,
      "ä»¶": 2870,
      "big": 2871,
      "Ġpast": 2872,
      "Ġmaking": 2873,
      "oman": 2874,
      "lib": 2875,
      "å²": 2876,
      "æł¼": 2877,
      "La": 2878,
      "æľ¯": 2879,
      "çĶ±": 2880,
      "ĠGu": 2881,
      "Ġmarket": 2882,
      "ÑģÑĤÐ°": 2883,
      "ored": 2884,
      "Ġsitu": 2885,
      "fort": 2886,
      "leg": 2887,
      "åķĨ": 2888,
      "incip": 2889,
      "Ġclos": 2890,
      "âĢĺ": 2891,
      "ales": 2892,
      "Ġobtain": 2893,
      "ources": 2894,
      "Ġera": 2895,
      "æĢ»": 2896,
      "æµģ": 2897,
      "body": 2898,
      "theta": 2899,
      "ĠÐĿ": 2900,
      "ai": 2901,
      "è¿Ļä¸ª": 2902,
      "åĢĻ": 2903,
      "ican": 2904,
      "ÑģÑĤÐ¸": 2905,
      "Ġalt": 2906,
      "Ġcorrect": 2907,
      "search": 2908,
      "ules": 2909,
      "On": 2910,
      "ä»»": 2911,
      "Ġcomplet": 2912,
      "acy": 2913,
      "Ġlik": 2914,
      "time": 2915,
      "Ġcomb": 2916,
      "ĠThen": 2917,
      "Ġmass": 2918,
      "ä»Ĭ": 2919,
      "angu": 2920,
      "Ġinvest": 2921,
      "table": 2922,
      "ĠÐ¾Ð±": 2923,
      "è¿Ĳ": 2924,
      "tau": 2925,
      "Ġphot": 2926,
      "Ġmove": 2927,
      "Ġenv": 2928,
      "ids": 2929,
      "è±": 2930,
      "ulation": 2931,
      "refore": 2932,
      "Value": 2933,
      "ĠUnivers": 2934,
      "åŃ©": 2935,
      "Ġpract": 2936,
      "uro": 2937,
      "ymbol": 2938,
      "sk": 2939,
      "æ®": 2940,
      "Ġhtt": 2941,
      "ened": 2942,
      "Ġstrong": 2943,
      "ĉif": 2944,
      "æīį": 2945,
      "Ġrepl": 2946,
      "dev": 2947,
      "There": 2948,
      "ched": 2949,
      "å¸¦": 2950,
      "OS": 2951,
      "ç§ĳ": 2952,
      "Ġhig": 2953,
      "éĢł": 2954,
      "una": 2955,
      "Ġ&&": 2956,
      "Ġentre": 2957,
      "Ġpob": 2958,
      "off": 2959,
      "Ġsays": 2960,
      "Ġseveral": 2961,
      "Sh": 2962,
      "Ġbreak": 2963,
      "Set": 2964,
      "aim": 2965,
      "Ġsimple": 2966,
      "Ġcannot": 2967,
      "iques": 2968,
      "times": 2969,
      "empt": 2970,
      "Ġredu": 2971,
      "Ġmeet": 2972,
      "que": 2973,
      "Ġcode": 2974,
      "].": 2975,
      "Ġdest": 2976,
      "Ġrequire": 2977,
      "æ±Ĥ": 2978,
      "////": 2979,
      "ĠWith": 2980,
      "ams": 2981,
      "Ġnecess": 2982,
      "Ġaddress": 2983,
      "Ġcas": 2984,
      "åħĪ": 2985,
      "Ġheart": 2986,
      "Ġdiv": 2987,
      "Ġfut": 2988,
      "Ġwhole": 2989,
      "ump": 2990,
      "erÃ¨ncies": 2991,
      "ocus": 2992,
      "uration": 2993,
      "aint": 2994,
      "init": 2995,
      "cle": 2996,
      "Ġdeterm": 2997,
      "Ã¨s": 2998,
      "å±±": 2999,
      "nu": 3000,
      "Ġnothing": 3001,
      "è®°": 3002,
      "ĉ//": 3003,
      "Im": 3004,
      "ison": 3005,
      "éĢī": 3006,
      "idual": 3007,
      "CO": 3008,
      "bu": 3009,
      "Ġimpro": 3010,
      "Ġchildren": 3011,
      "ĠChrist": 3012,
      "è®¤": 3013,
      "iar": 3014,
      "Ġ?": 3015,
      "ĠÑģÐ¸": 3016,
      "size": 3017,
      "Ġ%": 3018,
      "Ġonline": 3019,
      "tes": 3020,
      "arning": 3021,
      "æ¼": 3022,
      "!!": 3023,
      "Ġpage": 3024,
      "ury": 3025,
      "rodu": 3026,
      "Ð¿Ð°": 3027,
      "Ġspecial": 3028,
      "Ġvalues": 3029,
      "å¸Ī": 3030,
      "å¯¼": 3031,
      "Ġcolor": 3032,
      "ene": 3033,
      "Ġmax": 3034,
      "ailed": 3035,
      "Ġarea": 3036,
      "æĬ¥": 3037,
      "åŁİ": 3038,
      "è°ĥ": 3039,
      "eqref": 3040,
      "Ġspecific": 3041,
      "Ġmoney": 3042,
      "ĠPer": 3043,
      "åŀĭ": 3044,
      "}(\\": 3045,
      "arr": 3046,
      "èİ": 3047,
      "Ġface": 3048,
      "Ġcontinu": 3049,
      "Ġtook": 3050,
      "è§Ħ": 3051,
      "oud": 3052,
      "Ġcommon": 3053,
      "åĮ»": 3054,
      "Ġsound": 3055,
      "å¢ŀ": 3056,
      "ĠBr": 3057,
      "Ġstop": 3058,
      "Ġlearn": 3059,
      "Ġothers": 3060,
      "Ġwords": 3061,
      "Ġred": 3062,
      "Ġtalk": 3063,
      "ising": 3064,
      "åĶ": 3065,
      "Ġsense": 3066,
      "Ġcreat": 3067,
      "Ġbound": 3068,
      "sm": 3069,
      "è¯Ŀ": 3070,
      "Ġsimilar": 3071,
      "Ġpel": 3072,
      "Ġcountry": 3073,
      "anks": 3074,
      "ball": 3075,
      "Ġpath": 3076,
      "ç«ĭ": 3077,
      "Ġsugg": 3078,
      "å®Į": 3079,
      "ä»Ģ": 3080,
      "ĠĠĠĠĠĠĠĠĠĠĠĠĠĠĠĠĠĠĠĠĠĠĠ": 3081,
      "Ġcontent": 3082,
      "æº": 3083,
      "çº§": 3084,
      "èĮ": 3085,
      "ung": 3086,
      ".)": 3087,
      "rix": 3088,
      "ino": 3089,
      "Ð¿Ð¸": 3090,
      "ians": 3091,
      "Ġrequest": 3092,
      "è´¹": 3093,
      "åĽłä¸º": 3094,
      "Ġabs": 3095,
      "imal": 3096,
      "Ð·Ð°": 3097,
      "Is": 3098,
      "Ġhowever": 3099,
      "Ġjob": 3100,
      "mat": 3101,
      "Ġland": 3102,
      "å½±": 3103,
      "ending": 3104,
      "æĹ¶åĢĻ": 3105,
      "Get": 3106,
      "Ġdom": 3107,
      "Ġalg": 3108,
      "une": 3109,
      "Ġbody": 3110,
      "ĠÐ¿ÑĢÐ¸": 3111,
      "Ġdescrib": 3112,
      "ĠPar": 3113,
      "åıĪ": 3114,
      "Ġsuggest": 3115,
      "å®¹": 3116,
      "Ġsource": 3117,
      "ÑģÑĤÐ¾": 3118,
      "ĠDo": 3119,
      "Ġvolt": 3120,
      "atural": 3121,
      "color": 3122,
      "ReferÃ¨ncies": 3123,
      "resh": 3124,
      "ĠTe": 3125,
      "ä¼ł": 3126,
      "So": 3127,
      "é¥": 3128,
      "èģĶ": 3129,
      "ĠQu": 3130,
      "ension": 3131,
      "xi": 3132,
      "Ġmajor": 3133,
      "éĺŁ": 3134,
      "å¦Ĥæŀľ": 3135,
      "partial": 3136,
      "ĠĠĠĠĠĠĠĠĠĠ": 3137,
      "Ġquite": 3138,
      "ä»Ģä¹Ī": 3139,
      "View": 3140,
      "æķĪ": 3141,
      "åįĹ": 3142,
      "ÑģÐµ": 3143,
      "ained": 3144,
      "ä¸ĵ": 3145,
      "AS": 3146,
      "Ġobserv": 3147,
      "æķ´": 3148,
      "ĠHowever": 3149,
      "\";": 3150,
      "æ¸ħ": 3151,
      "omega": 3152,
      "fty": 3153,
      "from": 3154,
      "Ġenergy": 3155,
      "Ġesc": 3156,
      "agement": 3157,
      "æłĩ": 3158,
      "ä¸ĸ": 3159,
      "Ġrange": 3160,
      "Or": 3161,
      "Ġtw": 3162,
      "èħ": 3163,
      "iction": 3164,
      "çĹħ": 3165,
      "ured": 3166,
      "Ġhimself": 3167,
      "mand": 3168,
      "room": 3169,
      "Ð»Ñı": 3170,
      "Ġcamp": 3171,
      "è¾¾": 3172,
      "irm": 3173,
      "Ġknown": 3174,
      "omet": 3175,
      "æĪĺ": 3176,
      "ued": 3177,
      "æĹ¶éĹ´": 3178,
      "Ġmakes": 3179,
      "Ġconc": 3180,
      "ences": 3181,
      "Ġfiles": 3182,
      "));": 3183,
      "çħ": 3184,
      "position": 3185,
      "rows": 3186,
      "ç¤º": 3187,
      "Ġcharacter": 3188,
      "fully": 3189,
      "ä»ĸä»¬": 3190,
      "ç»Ł": 3191,
      "Ġwhether": 3192,
      "Ġpod": 3193,
      "light": 3194,
      "AD": 3195,
      "Ġair": 3196,
      "Ġbeaut": 3197,
      "Ap": 3198,
      "Se": 3199,
      "èĬ±": 3200,
      "è¯¥": 3201,
      "åĪĽ": 3202,
      "cm": 3203,
      "['": 3204,
      "ba": 3205,
      "Ġespec": 3206,
      "Ġdoing": 3207,
      "èĬĤ": 3208,
      "With": 3209,
      "Ġindiv": 3210,
      "Ġhalf": 3211,
      "Ġtotal": 3212,
      "Ġperfect": 3213,
      "rt": 3214,
      "icro": 3215,
      "è¿ĳ": 3216,
      "ÑĬÑĤ": 3217,
      "Ġvisit": 3218,
      "UT": 3219,
      "IM": 3220,
      "No": 3221,
      "book": 3222,
      "Ġals": 3223,
      "Wh": 3224,
      "oll": 3225,
      "Ġaquest": 3226,
      "aged": 3227,
      "åı°": 3228,
      "Ð¡": 3229,
      "nection": 3230,
      "ä¼ģ": 3231,
      "Ġeasy": 3232,
      "Ġacross": 3233,
      "ival": 3234,
      "Ġservices": 3235,
      "åĩł": 3236,
      "Ġvi": 3237,
      "ches": 3238,
      "Ġstre": 3239,
      "Ġbase": 3240,
      "Ġbar": 3241,
      "ĠÐł": 3242,
      "ÐŁ": 3243,
      "Ġear": 3244,
      "Ġidea": 3245,
      "è¯ģ": 3246,
      "Ð³ÑĢÐ°": 3247,
      "Ġbecome": 3248,
      "which": 3249,
      "aced": 3250,
      "Ġamong": 3251,
      "ols": 3252,
      "Ġdue": 3253,
      "joy": 3254,
      "Ġrunning": 3255,
      "æĪ¿": 3256,
      "Ġanything": 3257,
      "Ġmeasure": 3258,
      "Ġrather": 3259,
      "æ¶Ī": 3260,
      "path": 3261,
      "ĠCent": 3262,
      "utes": 3263,
      "Ġneeds": 3264,
      "ilt": 3265,
      "çļĦäºº": 3266,
      "field": 3267,
      "quad": 3268,
      "Ġflo": 3269,
      "ĠString": 3270,
      "Ġcaus": 3271,
      "Ġprincip": 3272,
      "åĦ": 3273,
      "When": 3274,
      "Ġtrad": 3275,
      "Ġfav": 3276,
      "é¡¹": 3277,
      "Ġfill": 3278,
      "Ġden": 3279,
      "Ġfa": 3280,
      "ney": 3281,
      "ÑĢÐ¸Ñı": 3282,
      "Ind": 3283,
      "Mod": 3284,
      "çĻ½": 3285,
      "Ġposition": 3286,
      "ç²¾": 3287,
      "ç¤¾": 3288,
      "Ġsite": 3289,
      "Ġdiscuss": 3290,
      "space": 3291,
      "å½¢": 3292,
      "plement": 3293,
      "Ġqual": 3294,
      "Ġalmost": 3295,
      "è¾ĥ": 3296,
      "mm": 3297,
      "Ġlos": 3298,
      "Ġload": 3299,
      "ä¹¦": 3300,
      "All": 3301,
      "lex": 3302,
      "rs": 3303,
      "tilde": 3304,
      "Exception": 3305,
      "Ġdidn": 3306,
      "ĠÐĵ": 3307,
      "Ġpaper": 3308,
      "UR": 3309,
      "Ġimage": 3310,
      "ita": 3311,
      "ĠJohn": 3312,
      "Ġpress": 3313,
      "Ġstatic": 3314,
      "ÑĨÐ¸Ñı": 3315,
      "infty": 3316,
      "è§Ĥ": 3317,
      "Ġrad": 3318,
      "ief": 3319,
      "Ġnetwork": 3320,
      "ze": 3321,
      "ING": 3322,
      "AB": 3323,
      "æĮĩ": 3324,
      "Ð¶Ðµ": 3325,
      "Ġimp": 3326,
      "ural": 3327,
      "è§ģ": 3328,
      "Ġnear": 3329,
      "ç©º": 3330,
      "mary": 3331,
      "imum": 3332,
      "Ġann": 3333,
      "å®ĥ": 3334,
      "çĲĥ": 3335,
      "Ġseems": 3336,
      "Ð¼Ð¾": 3337,
      "rew": 3338,
      "åıĭ": 3339,
      "icial": 3340,
      "Ġmaterial": 3341,
      "Ġcontin": 3342,
      "çĭ": 3343,
      "function": 3344,
      "èĢĥ": 3345,
      "Ġdefault": 3346,
      "though": 3347,
      "Ġsearch": 3348,
      "åıĳå±ķ": 3349,
      "Ġ/**": 3350,
      "æ¸¸": 3351,
      "åĦ¿": 3352,
      "Ġactually": 3353,
      "rown": 3354,
      "see": 3355,
      "Ġhom": 3356,
      "imate": 3357,
      "\"\"": 3358,
      "Ġcorres": 3359,
      "ties": 3360,
      "Ġrecord": 3361,
      "Ġwebs": 3362,
      "Qu": 3363,
      "ĠÑĢÐµ": 3364,
      "åĽĽ": 3365,
      "èµ°": 3366,
      "ara": 3367,
      "odes": 3368,
      "igure": 3369,
      "è¶Ĭ": 3370,
      "Ġetc": 3371,
      "åħī": 3372,
      "Int": 3373,
      "bit": 3374,
      "pen": 3375,
      "http": 3376,
      "æ³¨": 3377,
      "osp": 3378,
      "ĠIN": 3379,
      "åŃ©åŃĲ": 3380,
      "Ġstyle": 3381,
      "sim": 3382,
      "Ġquick": 3383,
      "è§ī": 3384,
      "isf": 3385,
      "urant": 3386,
      "rain": 3387,
      "CH": 3388,
      "æ£": 3389,
      "obal": 3390,
      "icy": 3391,
      "ÑģÑĤÐ²Ð¾": 3392,
      "Ġtarget": 3393,
      "ĠThese": 3394,
      "å¿«": 3395,
      "Ġdocument": 3396,
      "icult": 3397,
      "');": 3398,
      "Ġclose": 3399,
      "ators": 3400,
      "ike": 3401,
      "Ġsolution": 3402,
      "Ġground": 3403,
      "ĉreturn": 3404,
      "asc": 3405,
      "è¿Ľè¡Į": 3406,
      "Ġcut": 3407,
      "Ġfund": 3408,
      "....": 3409,
      "æ²»": 3410,
      "Ġfood": 3411,
      "Ġneg": 3412,
      "eb": 3413,
      "Ġrequired": 3414,
      "rary": 3415,
      "Ð»ÐµÐ´": 3416,
      "Ġinclude": 3417,
      "æĺĵ": 3418,
      "Error": 3419,
      "icon": 3420,
      "Ġstudy": 3421,
      "Ġblack": 3422,
      "Ġaction": 3423,
      "èĤ¡": 3424,
      "gu": 3425,
      "Ġgetting": 3426,
      "Ġtaken": 3427,
      "cciÃ³": 3428,
      "Ġsoon": 3429,
      "Delta": 3430,
      "lim": 3431,
      "çĬ": 3432,
      "().": 3433,
      "éĹ®é¢ĺ": 3434,
      "ç»Ħ": 3435,
      "Ġcomes": 3436,
      "Ġindividual": 3437,
      "Ġoptions": 3438,
      "ervice": 3439,
      "Object": 3440,
      "æĪ·": 3441,
      "ires": 3442,
      "Ġstep": 3443,
      "Ġgir": 3444,
      "Ġflow": 3445,
      "ibility": 3446,
      "Ġconfig": 3447,
      "Ġperiod": 3448,
      "Ġtro": 3449,
      "ÑĩÐ¸": 3450,
      "è§Ĩ": 3451,
      "Ġfall": 3452,
      "iful": 3453,
      "åĬŁ": 3454,
      "Ġlater": 3455,
      "Ġbuy": 3456,
      "æİ¨": 3457,
      "ĠCont": 3458,
      "ĠOne": 3459,
      "åħ·": 3460,
      "fl": 3461,
      "ĠĠĠĠĠĠĠĠĠĠĠĠĠ": 3462,
      "Ġemploy": 3463,
      "Ġoption": 3464,
      "èµĽ": 3465,
      "åĮĹ": 3466,
      "elt": 3467,
      "clus": 3468,
      "atus": 3469,
      "isk": 3470,
      "ached": 3471,
      "Ġpoints": 3472,
      "Ġbegin": 3473,
      "Ġhab": 3474,
      "ruction": 3475,
      "js": 3476,
      "ram": 3477,
      "ternal": 3478,
      "location": 3479,
      "Ð±Ð¾": 3480,
      "aving": 3481,
      "raf": 3482,
      "QL": 3483,
      "ega": 3484,
      "æĿ¡": 3485,
      "lement": 3486,
      "Ġmatter": 3487,
      "ä¸Ķ": 3488,
      "ĠSer": 3489,
      "Ġsaw": 3490,
      "abase": 3491,
      "Ġtrying": 3492,
      "Ġexact": 3493,
      "ceed": 3494,
      "Ġanswer": 3495,
      "nb": 3496,
      "Ġquality": 3497,
      "inary": 3498,
      "idd": 3499,
      "ÑīÐ°": 3500,
      "Def": 3501,
      "ĠEnglish": 3502,
      "rup": 3503,
      "ribute": 3504,
      "æĶ¹": 3505,
      "down": 3506,
      "oke": 3507,
      "ribution": 3508,
      "åĲĥ": 3509,
      "Ã§a": 3510,
      "Add": 3511,
      "ĠAss": 3512,
      "Ġresp": 3513,
      "url": 3514,
      "selves": 3515,
      "Ġlive": 3516,
      "ĠDes": 3517,
      "æĬķ": 3518,
      "Test": 3519,
      "Ġartic": 3520,
      "Ġshows": 3521,
      "åıĸ": 3522,
      "éļ¾": 3523,
      "gress": 3524,
      "å¤ª": 3525,
      "ged": 3526,
      "Ġtold": 3527,
      "unch": 3528,
      "ĠÑĢÐ°Ð·": 3529,
      "Ġeyes": 3530,
      "index": 3531,
      "ç±»": 3532,
      "Ġcompon": 3533,
      "tings": 3534,
      "Ġfac": 3535,
      "Ġhot": 3536,
      "ĠtambÃ©": 3537,
      "æ·±": 3538,
      "Ġindic": 3539,
      "empl": 3540,
      "ĠÐ»": 3541,
      "ironment": 3542,
      "lev": 3543,
      "aff": 3544,
      "cho": 3545,
      "ster": 3546,
      "cdot": 3547,
      "olution": 3548,
      "ving": 3549,
      "ĠBy": 3550,
      "ends": 3551,
      "Ġ...": 3552,
      "Ġlarg": 3553,
      "At": 3554,
      "æŃ¥": 3555,
      "\\,": 3556,
      "verage": 3557,
      "Ġtoday": 3558,
      "Ġfurther": 3559,
      "ç¡®": 3560,
      "Ġtreat": 3561,
      "Ġder": 3562,
      "ND": 3563,
      "é£Ł": 3564,
      "Ġsepar": 3565,
      "public": 3566,
      "itted": 3567,
      "Ġexec": 3568,
      "lay": 3569,
      "Ġphys": 3570,
      "orem": 3571,
      "ĠEst": 3572,
      "ç¥ŀ": 3573,
      "Ġproperty": 3574,
      "_,": 3575,
      "####": 3576,
      "Ġprevious": 3577,
      "Ġpret": 3578,
      "Ġmap": 3579,
      "ä¸įæĺ¯": 3580,
      "Ġorg": 3581,
      "å¤ĩ": 3582,
      "anguage": 3583,
      "input": 3584,
      "ns": 3585,
      "å¾Īå¤ļ": 3586,
      "link": 3587,
      "ĠVal": 3588,
      "Ġhor": 3589,
      "ario": 3590,
      "ĠÐ³Ð¾Ð´Ð¸": 3591,
      "Ġsubject": 3592,
      "Ġmil": 3593,
      "tab": 3594,
      "å§ĭ": 3595,
      "æ¬¾": 3596,
      "Ġmiss": 3597,
      "è½¬": 3598,
      "|Ġ": 3599,
      "æĳ": 3600,
      "Ġsocial": 3601,
      "ä¼ģä¸ļ": 3602,
      "Ġinstead": 3603,
      "oin": 3604,
      "Ġissue": 3605,
      "urch": 3606,
      "çķĮ": 3607,
      "igu": 3608,
      "ux": 3609,
      "èĤ²": 3610,
      "ottom": 3611,
      "comp": 3612,
      "Ġassoci": 3613,
      "abor": 3614,
      "ando": 3615,
      "uth": 3616,
      "idence": 3617,
      "ony": 3618,
      "user": 3619,
      "Ġoriginal": 3620,
      "ograph": 3621,
      "Ġbelieve": 3622,
      "ä½Ĩæĺ¯": 3623,
      "Ġlink": 3624,
      "Ġasked": 3625,
      "ĠMay": 3626,
      "å·²ç»ı": 3627,
      "Ġprint": 3628,
      "åĳ¨": 3629,
      "itten": 3630,
      "é¢Ĩ": 3631,
      "ells": 3632,
      "iding": 3633,
      "abled": 3634,
      "Not": 3635,
      "æ¹": 3636,
      "medi": 3637,
      "umer": 3638,
      "ĠSystem": 3639,
      "oon": 3640,
      "å¸Ĥåľº": 3641,
      "ĠÑĤÐ¾": 3642,
      "Ġhope": 3643,
      "è¿Ļæł·": 3644,
      "Ġtried": 3645,
      "Ġ///": 3646,
      "ĠGo": 3647,
      "US": 3648,
      "ĠInst": 3649,
      "Ġclear": 3650,
      "Ġpref": 3651,
      "pack": 3652,
      "ÑĢÑĬ": 3653,
      "IG": 3654,
      "Ġwalk": 3655,
      "prÃ©s": 3656,
      "uments": 3657,
      "}[": 3658,
      "Ġtri": 3659,
      "ä½ķ": 3660,
      "åįİ": 3661,
      "My": 3662,
      "Ġsil": 3663,
      "isc": 3664,
      "Ġpersonal": 3665,
      "ops": 3666,
      "Class": 3667,
      "ĠÐ¿ÑĢÐµÐ·": 3668,
      "Ġfuture": 3669,
      "OM": 3670,
      "Ġwhite": 3671,
      "sup": 3672,
      "ĠĠĠĠĠĠĠĠĠĠĠĠĠĠĠĠ<": 3673,
      "å¼ł": 3674,
      "Ġoffer": 3675,
      "']": 3676,
      "èĲ¥": 3677,
      "ĠNot": 3678,
      "æħ": 3679,
      "iu": 3680,
      "FF": 3681,
      "Ġpri": 3682,
      "Ġindust": 3683,
      "Ġstory": 3684,
      "Ġeverything": 3685,
      "Ġhost": 3686,
      "Ġsignific": 3687,
      "Ġelement": 3688,
      "ĠChe": 3689,
      "Ġdeg": 3690,
      "ä¼ĺ": 3691,
      "æ¢": 3692,
      "Par": 3693,
      "æīĢä»¥": 3694,
      "Ġenjoy": 3695,
      "Ġshown": 3696,
      "Ġwrite": 3697,
      "Ġserver": 3698,
      "Ġdevice": 3699,
      "åĩĨ": 3700,
      "istic": 3701,
      "raft": 3702,
      "Ġpara": 3703,
      "æģ¯": 3704,
      "());": 3705,
      "ä¹ł": 3706,
      "Ġsens": 3707,
      "Ġapplication": 3708,
      "Ġsobre": 3709,
      "ĠCal": 3710,
      "utions": 3711,
      "ogn": 3712,
      "ula": 3713,
      "Ġestab": 3714,
      "eqn": 3715,
      "Text": 3716,
      "ĠInt": 3717,
      "Ġcontact": 3718,
      "ores": 3719,
      "Ġill": 3720,
      "å¸ĥ": 3721,
      "å¹¿": 3722,
      "Ġcontext": 3723,
      "Ġsort": 3724,
      "ĠSte": 3725,
      "rid": 3726,
      "ags": 3727,
      "åħ±": 3728,
      "wise": 3729,
      "men": 3730,
      "inux": 3731,
      "Ð°Ð»": 3732,
      "Ġamount": 3733,
      "conom": 3734,
      "Ġadded": 3735,
      "éĢŁ": 3736,
      "Ġprobably": 3737,
      "çĥŃ": 3738,
      "Ġpict": 3739,
      "ĠSup": 3740,
      "Ġspeak": 3741,
      "}}\\": 3742,
      "Ġcorrespond": 3743,
      "Ġpa": 3744,
      "ä¹Ĳ": 3745,
      "Ġtitle": 3746,
      "pace": 3747,
      "åĬŀ": 3748,
      "ledge": 3749,
      "Ġindex": 3750,
      "ĠEd": 3751,
      "Ġvia": 3752,
      "nbsp": 3753,
      "aves": 3754,
      "ĠÐºÐ°ÑĤÐ¾": 3755,
      "Ġant": 3756,
      "Ġterms": 3757,
      "ä¹Łæĺ¯": 3758,
      "éĽĨ": 3759,
      "Ġpobl": 3760,
      "ites": 3761,
      "ÐĴ": 3762,
      "åħ»": 3763,
      "éħį": 3764,
      "ĠÐŀ": 3765,
      "Ġvoltage": 3766,
      "Ġweb": 3767,
      "Ġcontain": 3768,
      "æĶ¯": 3769,
      "éŁ": 3770,
      "Ġreview": 3771,
      "point": 3772,
      "Ġens": 3773,
      "fra": 3774,
      "Ġcity": 3775,
      "ands": 3776,
      "Ġpred": 3777,
      "Ġsi": 3778,
      "Ġperformance": 3779,
      "Ġbring": 3780,
      "ha": 3781,
      "Ġmach": 3782,
      "asing": 3783,
      "Ġhavia": 3784,
      "Ġdrive": 3785,
      "Ġdisplay": 3786,
      "Ġexam": 3787,
      "rel": 3788,
      "ysis": 3789,
      "Key": 3790,
      "Ġess": 3791,
      "Ġfeatures": 3792,
      "Ġstarted": 3793,
      "Ġbad": 3794,
      "Ġhuman": 3795,
      "éĺ²": 3796,
      "rite": 3797,
      "Ġfocus": 3798,
      "rec": 3799,
      "mega": 3800,
      "è£ħ": 3801,
      "haps": 3802,
      "åĨ³": 3803,
      "Ġbenef": 3804,
      "ustr": 3805,
      "Ġprop": 3806,
      "åıį": 3807,
      "Ð²Ð°Ð½Ðµ": 3808,
      "board": 3809,
      "Ġhours": 3810,
      "Ġdeal": 3811,
      "Ġcolumn": 3812,
      "ĠGe": 3813,
      "Ġwait": 3814,
      "åĮħ": 3815,
      "Ġfrequ": 3816,
      "Ð³Ð¸": 3817,
      "uf": 3818,
      "lished": 3819,
      "Ġpor": 3820,
      "ĠÐĺ": 3821,
      "ç»Ń": 3822,
      "iciÃ³": 3823,
      "ULL": 3824,
      "Ġpie": 3825,
      "å¤į": 3826,
      "ciÃ³": 3827,
      "Ġprofess": 3828,
      "Ġstudents": 3829,
      "Ð²Ð°ÑĤ": 3830,
      "ĠÃ": 3831,
      "Ġple": 3832,
      "Ġwomen": 3833,
      "Ġintegr": 3834,
      "ä½İ": 3835,
      "sl": 3836,
      "ĠHis": 3837,
      "Ġintrodu": 3838,
      "Ġblock": 3839,
      "çĶŁæ´»": 3840,
      "åĥ": 3841,
      "Ġbed": 3842,
      "æł¡": 3843,
      "Ġauthor": 3844,
      "Man": 3845,
      "ellow": 3846,
      "å®¢": 3847,
      "Ġinvol": 3848,
      "Ġwonder": 3849,
      "Ġmol": 3850,
      "Ġcases": 3851,
      "Ð¿Ðµ": 3852,
      "Ġfront": 3853,
      "ĠCor": 3854,
      "PE": 3855,
      "ports": 3856,
      "Ġarray": 3857,
      "ĠCo": 3858,
      "perty": 3859,
      "Ġhigher": 3860,
      "bed": 3861,
      "æ¨": 3862,
      "Ġactiv": 3863,
      "Ġsem": 3864,
      "ection": 3865,
      "Ġsatisf": 3866,
      "å±Ģ": 3867,
      "++": 3868,
      "ias": 3869,
      "çª": 3870,
      "};": 3871,
      "Ġparent": 3872,
      "åı¯èĥ½": 3873,
      "è¿ĺæĺ¯": 3874,
      "Ġcrit": 3875,
      "Requ": 3876,
      "Ġautom": 3877,
      "é©¬": 3878,
      "Ġresist": 3879,
      "itting": 3880,
      "Ġnatural": 3881,
      "File": 3882,
      "olds": 3883,
      "åĢ¼": 3884,
      "Ġwin": 3885,
      "Ġsection": 3886,
      "lia": 3887,
      "Ġproducts": 3888,
      "Ġsomeone": 3889,
      "Ġaccept": 3890,
      "oper": 3891,
      "âĶ": 3892,
      "Ġquant": 3893,
      "ii": 3894,
      "ĠFl": 3895,
      "urope": 3896,
      "æĿĥ": 3897,
      "xim": 3898,
      "èı": 3899,
      "ouch": 3900,
      "TER": 3901,
      "Ġdire": 3902,
      "Ġentire": 3903,
      "Time": 3904,
      "Ġvideo": 3905,
      "Ġdifficult": 3906,
      "TR": 3907,
      "æľª": 3908,
      "iple": 3909,
      "Ġclean": 3910,
      "Ġwebsite": 3911,
      "group": 3912,
      "Ġearly": 3913,
      "æĲ": 3914,
      "Ġsimply": 3915,
      "Ġlower": 3916,
      "çīĩ": 3917,
      "enn": 3918,
      "oad": 3919,
      "roller": 3920,
      "æºĲ": 3921,
      "å®Ŀ": 3922,
      "Ġrate": 3923,
      "ounc": 3924,
      "ĠÐĽ": 3925,
      "åĪĻ": 3926,
      ":\"": 3927,
      "Ġcomplete": 3928,
      "ĠMed": 3929,
      "Ġinstance": 3930,
      "Ġfou": 3931,
      "LO": 3932,
      "ĠÐ²ÑĬ": 3933,
      "df": 3934,
      "Ġlimit": 3935,
      "Ġvarious": 3936,
      "æĺ¾": 3937,
      "Ġarch": 3938,
      "Ġtaking": 3939,
      "åĬ¿": 3940,
      "çº¢": 3941,
      "nav": 3942,
      "urg": 3943,
      "Ġapproach": 3944,
      "ilities": 3945,
      "Ġcalcul": 3946,
      "Ġsche": 3947,
      "ĠLet": 3948,
      "LA": 3949,
      "Ġhon": 3950,
      "è¶ħ": 3951,
      "Ġitself": 3952,
      "Ġmessage": 3953,
      "çİ¯": 3954,
      "ä¾¿": 3955,
      "Ġpotential": 3956,
      "mar": 3957,
      "å¨": 3958,
      "https": 3959,
      "Ġlength": 3960,
      "Ð±Ð¸": 3961,
      "è®º": 3962,
      "ui": 3963,
      "Ġappear": 3964,
      "Ġresearch": 3965,
      "max": 3966,
      "Ġupdate": 3967,
      "Omega": 3968,
      "åĨµ": 3969,
      "orld": 3970,
      "éĻ¤": 3971,
      "Ġinstalled": 3972,
      "Ġcult": 3973,
      "lÃŃ": 3974,
      "yl": 3975,
      "was": 3976,
      "åıĤ": 3977,
      "çľģ": 3978,
      "æĴ": 3979,
      "ĠReg": 3980,
      "Ġcard": 3981,
      "çİĭ": 3982,
      "eral": 3983,
      "Ġfriends": 3984,
      "åįĩ": 3985,
      "Ġmembers": 3986,
      "Sc": 3987,
      "iet": 3988,
      "æļ": 3989,
      "Ġutil": 3990,
      "ä¼Ĺ": 3991,
      "sequ": 3992,
      "inition": 3993,
      "fer": 3994,
      "åį³": 3995,
      "ATE": 3996,
      "ÑĥÑĢ": 3997,
      "ening": 3998,
      "itude": 3999,
      "éľĢè¦ģ": 4000,
      "Inst": 4001,
      "ender": 4002,
      "Ġcreated": 4003,
      "mission": 4004,
      "Ġcompet": 4005,
      "like": 4006,
      "çłĶ": 4007,
      "map": 4008,
      "oice": 4009,
      "ÑĬÐ»Ð³Ð°": 4010,
      "æĢģ": 4011,
      "ij": 4012,
      "!--": 4013,
      "error": 4014,
      "That": 4015,
      "py": 4016,
      "node": 4017,
      "Ġeduc": 4018,
      "Ġrecomm": 4019,
      "ios": 4020,
      "åĨĽ": 4021,
      "Ġdownload": 4022,
      "andom": 4023,
      "ÃŃt": 4024,
      "lt": 4025,
      "Ġfine": 4026,
      "Ġmusic": 4027,
      "åĬ©": 4028,
      "æł¹": 4029,
      "epsilon": 4030,
      "Ġang": 4031,
      "äºĶ": 4032,
      "Ġfire": 4033,
      "From": 4034,
      "å¹²": 4035,
      "ync": 4036,
      "Ġfive": 4037,
      "Ġpers": 4038,
      "dom": 4039,
      "ĠÑĤÐµ": 4040,
      "textbf": 4041,
      "capt": 4042,
      "ena": 4043,
      "Ã¨c": 4044,
      "Ġhands": 4045,
      "overed": 4046,
      "ÑīÐµ": 4047,
      "Ġnormal": 4048,
      "ĠUniversity": 4049,
      "inks": 4050,
      "ĠÐ´Ðµ": 4051,
      "Ġexpected": 4052,
      "____": 4053,
      "Ġminutes": 4054,
      "}_{\\": 4055,
      "amed": 4056,
      "';": 4057,
      "Ġplease": 4058,
      "Ġneeded": 4059,
      "ä¾Ľ": 4060,
      "å¼ķ": 4061,
      "Ġwindow": 4062,
      "åĳĬ": 4063,
      "ÑģÐ°": 4064,
      "ĠSant": 4065,
      "raphics": 4066,
      "æľįåĬ¡": 4067,
      "Ġseries": 4068,
      "Ġround": 4069,
      "mber": 4070,
      "Ġconstant": 4071,
      "IP": 4072,
      "Ġsal": 4073,
      "Ġago": 4074,
      "Ġbox": 4075,
      "ĠIm": 4076,
      "Ġhttp": 4077,
      "Ġprotect": 4078,
      "Ġge": 4079,
      "é¦ĸ": 4080,
      "uly": 4081,
      "length": 4082,
      "æŁ¥": 4083,
      "=Ġ": 4084,
      "(),": 4085,
      "ises": 4086,
      "Ġmodels": 4087,
      "äººçļĦ": 4088,
      "Ġcondition": 4089,
      "Ġaud": 4090,
      "Ġsud": 4091,
      "Ġheard": 4092,
      "leep": 4093,
      "Ġcompan": 4094,
      "ĠperÃ²": 4095,
      "astic": 4096,
      "ils": 4097,
      "èĩªå·±çļĦ": 4098,
      "Ġste": 4099,
      "Ġdrop": 4100,
      "come": 4101,
      "åĥı": 4102,
      "uns": 4103,
      "Of": 4104,
      "Ġprice": 4105,
      "Ġmount": 4106,
      "åĽ¾": 4107,
      "Ġthus": 4108,
      "hel": 4109,
      "ÃŃs": 4110,
      "æĢĿ": 4111,
      "åĽ¢": 4112,
      "Ġcommunity": 4113,
      "ĠMac": 4114,
      "ĠAmerican": 4115,
      "çİ°åľ¨": 4116,
      "æ¡Ī": 4117,
      "Ad": 4118,
      "ÑģÐºÐ¾": 4119,
      "éĿŀå¸¸": 4120,
      "Ġshare": 4121,
      "ĠAfter": 4122,
      "anced": 4123,
      "lla": 4124,
      "airs": 4125,
      "Ġesp": 4126,
      "Ġlooked": 4127,
      "print": 4128,
      "Ġlikely": 4129,
      "config": 4130,
      "Ġsoftware": 4131,
      "ken": 4132,
      "Ġregard": 4133,
      "Ġbackground": 4134,
      "ĠÑħ": 4135,
      "æ»¡": 4136,
      "Ġmother": 4137,
      "Ġboot": 4138,
      "å¤§å®¶": 4139,
      "eneral": 4140,
      "Ġscreen": 4141,
      "éĥ½æĺ¯": 4142,
      "è¶³": 4143,
      "Ġgraph": 4144,
      "Event": 4145,
      "Ġstay": 4146,
      "www": 4147,
      "çı": 4148,
      "Ġextra": 4149,
      "':": 4150,
      "æĿĳ": 4151,
      "Ġrelations": 4152,
      "Ġfer": 4153,
      "Let": 4154,
      "orith": 4155,
      "ging": 4156,
      "ota": 4157,
      "Ġdim": 4158,
      "bin": 4159,
      "Ġdoor": 4160,
      "plied": 4161,
      "Ġfeature": 4162,
      "oken": 4163,
      "Ġbeautiful": 4164,
      "Ġlonger": 4165,
      "ĠIntern": 4166,
      "ĠĠ$": 4167,
      "Ġmatch": 4168,
      "under": 4169,
      "çľ¼": 4170,
      "ros": 4171,
      "psilon": 4172,
      "psi": 4173,
      "Ġdig": 4174,
      "å¿ħ": 4175,
      "Ġstandard": 4176,
      "Ġchanges": 4177,
      "Ġtrack": 4178,
      "db": 4179,
      "Ġhol": 4180,
      "just": 4181,
      "Ġtraining": 4182,
      "lock": 4183,
      "çİĩ": 4184,
      "oun": 4185,
      "elling": 4186,
      "ograf": 4187,
      "Ġproblems": 4188,
      "ĠPol": 4189,
      "æĸĻ": 4190,
      "''": 4191,
      "èĩ´": 4192,
      "Ġopport": 4193,
      "æ®µ": 4194,
      "ĠNow": 4195,
      "ĠAb": 4196,
      "rought": 4197,
      "istes": 4198,
      "Ġdevelopment": 4199,
      "ya": 4200,
      "Ġtemper": 4201,
      "æİĴ": 4202,
      "Ġfather": 4203,
      "ama": 4204,
      "çļĦæĹ¶åĢĻ": 4205,
      "Ġfins": 4206,
      "Ġprec": 4207,
      "ENT": 4208,
      "you": 4209,
      "Ġvers": 4210,
      "çħ§": 4211,
      "Ġdefined": 4212,
      "Ġband": 4213,
      "ä¹°": 4214,
      "sqrt": 4215,
      "ä½ı": 4216,
      "Ġmonths": 4217,
      "Ġparticip": 4218,
      "Ġdos": 4219,
      "ä»ħ": 4220,
      "Ġach": 4221,
      "ĠÐ¥": 4222,
      "å¾Ģ": 4223,
      "curity": 4224,
      "ĠWill": 4225,
      "ĠMe": 4226,
      "Ġcross": 4227,
      "irtual": 4228,
      "Ġful": 4229,
      "Ġwall": 4230,
      "å©": 4231,
      "Ġlat": 4232,
      "ÑĢÐ°ÑĤ": 4233,
      "çģ«": 4234,
      "è¾¹": 4235,
      "Ġpretty": 4236,
      "Ġwoman": 4237,
      "çĮ": 4238,
      "PI": 4239,
      "Ġdecl": 4240,
      "count": 4241,
      "Ġregular": 4242,
      "aging": 4243,
      "Ġsystems": 4244,
      "Ġpan": 4245,
      "Ġloss": 4246,
      "ynam": 4247,
      "result": 4248,
      "åı·": 4249,
      "nia": 4250,
      "è¯Ĩ": 4251,
      "Ġaw": 4252,
      "ĠOur": 4253,
      "cup": 4254,
      "ĠDr": 4255,
      "Ġnode": 4256,
      "Ġisn": 4257,
      "ĠÐ²Ð¾": 4258,
      "ÑĨÐ°": 4259,
      "ĠWindows": 4260,
      "åĻ": 4261,
      "vare": 4262,
      "nces": 4263,
      "éļı": 4264,
      "åį´": 4265,
      "Ġson": 4266,
      "æľĽ": 4267,
      "æĬ¤": 4268,
      "Ġsun": 4269,
      "ç¦»": 4270,
      "Ġleave": 4271,
      "ML": 4272,
      "irit": 4273,
      "Ġprovided": 4274,
      "é¾": 4275,
      "sing": 4276,
      "bm": 4277,
      "Ġdate": 4278,
      "more": 4279,
      "Ġclick": 4280,
      "ĠÐ¼Ðµ": 4281,
      "ĠAdd": 4282,
      "Ġdetails": 4283,
      "çļĦä¸Ģ": 4284,
      "Ġweight": 4285,
      "åĸľ": 4286,
      "Ġcomplex": 4287,
      "Ġaccording": 4288,
      "Ġsym": 4289,
      "Ġlines": 4290,
      "ĠMin": 4291,
      "Ðĺ": 4292,
      "Ġdraw": 4293,
      "subsection": 4294,
      "ĠBo": 4295,
      "Ġusually": 4296,
      "Ġcause": 4297,
      "Ġinitial": 4298,
      "Ġfast": 4299,
      "Ġforward": 4300,
      "Ġquestions": 4301,
      "fil": 4302,
      "Ġremov": 4303,
      "Ġactual": 4304,
      "Ġaddition": 4305,
      "Ġwhose": 4306,
      "ourn": 4307,
      "ĠpoblaciÃ³": 4308,
      "Ġcoming": 4309,
      "rav": 4310,
      "ĠÑĩÐµ": 4311,
      "åħĭ": 4312,
      "umb": 4313,
      "Ġseason": 4314,
      "Ġstructure": 4315,
      "ilder": 4316,
      "Over": 4317,
      "å¤Ł": 4318,
      "éĢĤ": 4319,
      "è®¸": 4320,
      "Ed": 4321,
      "Ġdifference": 4322,
      "caption": 4323,
      "æ²¹": 4324,
      "ora": 4325,
      "Gamma": 4326,
      "Ġrespons": 4327,
      "éĢļè¿ĩ": 4328,
      "Ġenvironment": 4329,
      "Ġroot": 4330,
      "kn": 4331,
      "Ġhistory": 4332,
      "hers": 4333,
      "Ġnote": 4334,
      "ĠsÃ³n": 4335,
      "Ġwatch": 4336,
      "Ġdeath": 4337,
      "non": 4338,
      "Ġclaim": 4339,
      "Ġchoose": 4340,
      "Ġimplement": 4341,
      "Ġpick": 4342,
      "eter": 4343,
      "Ġfit": 4344,
      "orage": 4345,
      "Ġapply": 4346,
      "Ġwrong": 4347,
      "UN": 4348,
      "åŃĺ": 4349,
      "/*": 4350,
      "Ġslow": 4351,
      "urb": 4352,
      "Ġmention": 4353,
      "Ġgave": 4354,
      "Ġmyself": 4355,
      "çļĦæĺ¯": 4356,
      "rad": 4357,
      "cor": 4358,
      "pres": 4359,
      "izing": 4360,
      "Ġparts": 4361,
      "Ġnecessary": 4362,
      "Ġ);": 4363,
      "å¤±": 4364,
      "Ġimprove": 4365,
      "Ġevents": 4366,
      "igned": 4367,
      "Ġgives": 4368,
      "çĶ·": 4369,
      "Ġcam": 4370,
      "rim": 4371,
      "orks": 4372,
      "ĠPart": 4373,
      "æĸ¯": 4374,
      "Now": 4375,
      "summary": 4376,
      "can": 4377,
      "annel": 4378,
      "ners": 4379,
      "æŀģ": 4380,
      "è®®": 4381,
      "éĻħ": 4382,
      "eqnarray": 4383,
      "~~": 4384,
      "Ġri": 4385,
      "Ġespecially": 4386,
      "Ġdeep": 4387,
      "Ġresponse": 4388,
      "varepsilon": 4389,
      "anger": 4390,
      "Ġgovernment": 4391,
      "Ġgen": 4392,
      "nder": 4393,
      "ç§°": 4394,
      "Item": 4395,
      "ĠRep": 4396,
      "Request": 4397,
      "Ð°Ð¹": 4398,
      "iddle": 4399,
      "åĳ½": 4400,
      "Ġfoot": 4401,
      "CE": 4402,
      "åŃĹ": 4403,
      "Ġpub": 4404,
      "éªĮ": 4405,
      "åĪ°äºĨ": 4406,
      "efore": 4407,
      "Ġmorning": 4408,
      "Ġassert": 4409,
      "style": 4410,
      "Ġspect": 4411,
      "çº¦": 4412,
      "Ġdark": 4413,
      "ç´ł": 4414,
      "ç±³": 4415,
      "Ġwar": 4416,
      "Ġassum": 4417,
      "--------------------------------": 4418,
      "ooth": 4419,
      "ĠYork": 4420,
      "ponent": 4421,
      "Ġbehind": 4422,
      "Fr": 4423,
      "Ġknew": 4424,
      "State": 4425,
      "bor": 4426,
      "ÑģÐ¾": 4427,
      "Ġmode": 4428,
      "terns": 4429,
      "Ġthird": 4430,
      "php": 4431,
      "Ġfollows": 4432,
      "Ġcapac": 4433,
      "ç½®": 4434,
      "è¡Ģ": 4435,
      "Ġthemselves": 4436,
      "å¼Ģå§ĭ": 4437,
      "unicip": 4438,
      "Ġpain": 4439,
      "De": 4440,
      "Do": 4441,
      "è±¡": 4442,
      "Ġca": 4443,
      "$Ġ": 4444,
      "Ġwriting": 4445,
      "Ġdam": 4446,
      "Ġissues": 4447,
      ".}": 4448,
      "Ġfavor": 4449,
      "ĠSet": 4450,
      "ĠHere": 4451,
      "æĸ½": 4452,
      "vis": 4453,
      "Ġplant": 4454,
      "ĠÐ½Ð¾": 4455,
      "Bu": 4456,
      "Field": 4457,
      "osa": 4458,
      "ĠMon": 4459,
      "Ġdiag": 4460,
      "äº¿": 4461,
      "Ġwritten": 4462,
      "TE": 4463,
      "ÑģÐºÐ°ÑĤÐ°": 4464,
      "uel": 4465,
      "å·ŀ": 4466,
      "egraphics": 4467,
      "includegraphics": 4468,
      "Ġconditions": 4469,
      "IL": 4470,
      "Element": 4471,
      "å¢ĥ": 4472,
      "Ġsix": 4473,
      "Ġsignificant": 4474,
      "Ġcopy": 4475,
      "ministr": 4476,
      "ĠGet": 4477,
      "æ¬¢": 4478,
      "Ġcoll": 4479,
      "Ð»Ñĥ": 4480,
      "true": 4481,
      "æĸŃ": 4482,
      "Form": 4483,
      "Ġswe": 4484,
      "Ġconsist": 4485,
      "Ġtakes": 4486,
      "plies": 4487,
      "ola": 4488,
      "Ġage": 4489,
      "earch": 4490,
      "ĠÐ¤": 4491,
      "Ġreceived": 4492,
      "Ġpopular": 4493,
      "Ġsn": 4494,
      "æİ§": 4495,
      "è¯ķ": 4496,
      "ille": 4497,
      "proof": 4498,
      "sudo": 4499,
      "Ġremain": 4500,
      "Ġpurch": 4501,
      "erra": 4502,
      "è¿ŀ": 4503,
      "used": 4504,
      "Ġcircuit": 4505,
      "ĠYour": 4506,
      "ride": 4507,
      "Le": 4508,
      "Ġbuilding": 4509,
      "tot": 4510,
      "hab": 4511,
      "Ġrelated": 4512,
      "éĶĢ": 4513,
      "Ġcred": 4514,
      "Ġlearning": 4515,
      "yd": 4516,
      "oo": 4517,
      "ici": 4518,
      "Ġknowledge": 4519,
      "Ġworth": 4520,
      "ĠII": 4521,
      "emph": 4522,
      "Ðĳ": 4523,
      "ady": 4524,
      "ografia": 4525,
      "cion": 4526,
      "hib": 4527,
      "\\{": 4528,
      "Ġupd": 4529,
      "Ġturned": 4530,
      "Ġcomputer": 4531,
      "ÑĢÐ°Ð½": 4532,
      "Ġci": 4533,
      "object": 4534,
      "Ġ/*": 4535,
      "Ġ+Ġ": 4536,
      "çĻ¾": 4537,
      "PS": 4538,
      "_.": 4539,
      "ĠComp": 4540,
      "ĠPa": 4541,
      "po": 4542,
      "Ġsus": 4543,
      "cret": 4544,
      "pri": 4545,
      "){": 4546,
      "æ¼Ķ": 4547,
      "eed": 4548,
      "Ġpet": 4549,
      "Ġroad": 4550,
      "åĵį": 4551,
      "ĉĉĉĉĉ": 4552,
      "èİ·": 4553,
      "md": 4554,
      "éĻĲ": 4555,
      "è¨": 4556,
      "ĠĠĠĠĠĠĠĠ$": 4557,
      "Ġgrad": 4558,
      "ĠÐ¼Ñĥ": 4559,
      "hand": 4560,
      "Ġindepend": 4561,
      "Ġmeaning": 4562,
      "void": 4563,
      "Ġfail": 4564,
      "Ġwidth": 4565,
      "Ġtherefore": 4566,
      "è¯·": 4567,
      "des": 4568,
      "Ġframe": 4569,
      "rict": 4570,
      "Ġwanted": 4571,
      "ming": 4572,
      "orts": 4573,
      "Ġ});": 4574,
      "Ġspeed": 4575,
      "æµİ": 4576,
      "Ġadditional": 4577,
      "Ġheld": 4578,
      "ĠNULL": 4579,
      "Info": 4580,
      "Map": 4581,
      "Equ": 4582,
      "roups": 4583,
      "AG": 4584,
      "éĴ±": 4585,
      "ĠEurope": 4586,
      "çŁ¥éģĵ": 4587,
      "thon": 4588,
      "åİĨ": 4589,
      "Ġready": 4590,
      "ca": 4591,
      "ĠMore": 4592,
      "ernel": 4593,
      "olean": 4594,
      "Ġ=Ġ$": 4595,
      "cast": 4596,
      "Ġstates": 4597,
      "Ġmultiple": 4598,
      "ç¬¬ä¸Ģ": 4599,
      "Ġliter": 4600,
      "Node": 4601,
      "abla": 4602,
      "æĥħåĨµ": 4603,
      "æ¨¡": 4604,
      "valid": 4605,
      "Ġprovides": 4606,
      "oph": 4607,
      "Ġsave": 4608,
      "place": 4609,
      "ĠOb": 4610,
      "éĺ³": 4611,
      "ĠÐ³ÑĢÐ°": 4612,
      "She": 4613,
      "Read": 4614,
      "ĠÐķ": 4615,
      "åĻ¨": 4616,
      "ying": 4617,
      "iting": 4618,
      "illa": 4619,
      "Ġment": 4620,
      "Then": 4621,
      "Up": 4622,
      "Ġchall": 4623,
      "su": 4624,
      "åģ¥": 4625,
      "Ð¼ÐµÐ½": 4626,
      "plication": 4627,
      "äº§åĵģ": 4628,
      "Ġvalid": 4629,
      "ensive": 4630,
      "ÑĢÐµÐ·": 4631,
      "chi": 4632,
      "ĠBar": 4633,
      "idered": 4634,
      "å¯¹äºİ": 4635,
      "Ġpolit": 4636,
      "Ġ},": 4637,
      "Ġaccom": 4638,
      "Ðł": 4639,
      "Ġinside": 4640,
      "verse": 4641,
      "è½»": 4642,
      "Ġfamil": 4643,
      "ÑĩÐ½Ð¸": 4644,
      "æĬĢæľ¯": 4645,
      "è¨Ģ": 4646,
      "fin": 4647,
      "ĠAm": 4648,
      "æŀĦ": 4649,
      "Ġtown": 4650,
      "Ġclient": 4651,
      "Ġq": 4652,
      "Ġimmedi": 4653,
      "å¥½çļĦ": 4654,
      "icle": 4655,
      "æĻ¯": 4656,
      "å§Ķ": 4657,
      "lege": 4658,
      "iana": 4659,
      "java": 4660,
      "Ġeasily": 4661,
      "çīĮ": 4662,
      "select": 4663,
      "ifier": 4664,
      "Be": 4665,
      "Ġ\\,": 4666,
      "ç¢": 4667,
      "åĭ": 4668,
      "ensity": 4669,
      "dt": 4670,
      "Index": 4671,
      "anch": 4672,
      "Ġseus": 4673,
      "è¿ĻäºĽ": 4674,
      "Ġincrease": 4675,
      "è´£": 4676,
      ".'": 4677,
      "Ġdou": 4678,
      "center": 4679,
      "ordin": 4680,
      "ç§¯": 4681,
      "Ġblog": 4682,
      "())": 4683,
      "mult": 4684,
      "Ġsqu": 4685,
      "``": 4686,
      "api": 4687,
      "atform": 4688,
      "Ġinform": 4689,
      "å¾·": 4690,
      "Ġways": 4691,
      "Ġhear": 4692,
      "Path": 4693,
      "Ġlanguage": 4694,
      "ocs": 4695,
      "itats": 4696,
      "Ġparty": 4697,
      "åĽ½å®¶": 4698,
      "One": 4699,
      "Ġtax": 4700,
      "ç®Ĺ": 4701,
      "Ġconnection": 4702,
      "åıĮ": 4703,
      "Ġlooks": 4704,
      "Ġbecom": 4705,
      "Ġarticle": 4706,
      "ç»Ī": 4707,
      "IR": 4708,
      "plit": 4709,
      "enty": 4710,
      "ĠÐ³Ð¾Ð´Ð¸Ð½Ð°": 4711,
      "Ġdirectly": 4712,
      "ç®¡çĲĨ": 4713,
      "æĺŁ": 4714,
      "Ġmis": 4715,
      "Ġswitch": 4716,
      "è¿ľ": 4717,
      "Ġunique": 4718,
      "Ġliving": 4719,
      "Ġbegan": 4720,
      "Ġcast": 4721,
      "åĨľ": 4722,
      "rupt": 4723,
      "ç«Ļ": 4724,
      "hood": 4725,
      "Ġlost": 4726,
      "é¢Ħ": 4727,
      "Ġusers": 4728,
      "ĠSm": 4729,
      "Ġstore": 4730,
      "èĲ½": 4731,
      "Ġblo": 4732,
      "Ġsec": 4733,
      "ĠState": 4734,
      "uk": 4735,
      "Ġfelt": 4736,
      "Ġassist": 4737,
      "Ġanalysis": 4738,
      "Pl": 4739,
      "title": 4740,
      "ĠSome": 4741,
      "Ð´ÐµÐ½": 4742,
      "ĠdesprÃ©s": 4743,
      "Ġscript": 4744,
      "Ent": 4745,
      "æĹ©": 4746,
      "Ġseemed": 4747,
      "Ġremove": 4748,
      "call": 4749,
      "äº²": 4750,
      "escription": 4751,
      "ĠfamÃŃ": 4752,
      "Ġrecogn": 4753,
      "undred": 4754,
      "ä»½": 4755,
      "Ġsomet": 4756,
      "Ġapt": 4757,
      "Ġyourself": 4758,
      "Ġfair": 4759,
      "ĠGl": 4760,
      "Ġnames": 4761,
      "host": 4762,
      "ĠCount": 4763,
      "Ġdir": 4764,
      "apter": 4765,
      "ship": 4766,
      "é»Ħ": 4767,
      "Ġpackage": 4768,
      "iam": 4769,
      "å£«": 4770,
      "æĸ¹éĿ¢": 4771,
      "æ±Ł": 4772,
      "å¤§çļĦ": 4773,
      "illed": 4774,
      "Ġmethods": 4775,
      "ught": 4776,
      "Ġattempt": 4777,
      "ĠPe": 4778,
      "start": 4779,
      "Ã²ria": 4780,
      "ham": 4781,
      "åĪĩ": 4782,
      "ĠUnited": 4783,
      "Ð¶Ð°": 4784,
      "Ġwish": 4785,
      "next": 4786,
      "geq": 4787,
      "å¾®": 4788,
      "ä¹ī": 4789,
      "Ġ()": 4790,
      "obile": 4791,
      "ç»´": 4792,
      "ĠDep": 4793,
      "ä¸ĢäºĽ": 4794,
      "åºķ": 4795,
      "anya": 4796,
      "Ġformat": 4797,
      "ĠAct": 4798,
      "inner": 4799,
      "ĠFrom": 4800,
      "iny": 4801,
      "erent": 4802,
      "ĠSim": 4803,
      "oring": 4804,
      "pass": 4805,
      "gs": 4806,
      "[]": 4807,
      "ĠĠĠĠĠĠĠĠĠĠĠĠĠĠ<": 4808,
      "åĲĮæĹ¶": 4809,
      "atives": 4810,
      "Ġbehav": 4811,
      "OD": 4812,
      "Ġ~": 4813,
      "Ġparameters": 4814,
      "rangle": 4815,
      "Ġinflu": 4816,
      "Ġsend": 4817,
      "Ġconsidered": 4818,
      "Ġimag": 4819,
      "rightarrow": 4820,
      "hi": 4821,
      "Ġcover": 4822,
      "Ġbrought": 4823,
      "pression": 4824,
      "Ġsignal": 4825,
      "iant": 4826,
      "ĠÐ¶": 4827,
      "Context": 4828,
      "Ġwood": 4829,
      "ding": 4830,
      "lete": 4831,
      "Ser": 4832,
      "draw": 4833,
      "Ġstrateg": 4834,
      "Result": 4835,
      "\"../../": 4836,
      "éĩĩ": 4837,
      "ç»Ĩ": 4838,
      "acion": 4839,
      "ocks": 4840,
      "Ðļ": 4841,
      "Ġsuff": 4842,
      "New": 4843,
      "ÐĲ": 4844,
      "OL": 4845,
      "gy": 4846,
      "Ġboard": 4847,
      "ÑģÐºÐ¸Ñı": 4848,
      "reate": 4849,
      "Ġchoice": 4850,
      "ĠMod": 4851,
      "Ġattack": 4852,
      "æ¸©": 4853,
      "ÑĬÐ½": 4854,
      "Ġmedia": 4855,
      "Ġpositive": 4856,
      "äº¬": 4857,
      "Ġones": 4858,
      "ĠRob": 4859,
      "Ġaffect": 4860,
      "ä¾Ŀ": 4861,
      "Ġbal": 4862,
      "Ġmachine": 4863,
      "itect": 4864,
      "change": 4865,
      "Ġmillion": 4866,
      "ä¸įèĥ½": 4867,
      "Ġestim": 4868,
      "Act": 4869,
      "iva": 4870,
      "Ġoutside": 4871,
      "éĻ©": 4872,
      "Ġcontinue": 4873,
      "ĠJan": 4874,
      "Ġtravel": 4875,
      "Ġmemory": 4876,
      "zz": 4877,
      "default": 4878,
      "quot": 4879,
      "pty": 4880,
      "nes": 4881,
      "Ġord": 4882,
      "ĠRec": 4883,
      "parent": 4884,
      "ĠĠĠĠĠĠĠĠĠĠĠĠĠĠ": 4885,
      "Ġsubst": 4886,
      "check": 4887,
      "Here": 4888,
      "Ġelements": 4889,
      "çĸĹ": 4890,
      "wid": 4891,
      "Ġdatabase": 4892,
      "Ġconnected": 4893,
      "\\}": 4894,
      "info": 4895,
      "ĠĠĠĠĠĠĠĠĠĠ<": 4896,
      "èŀ": 4897,
      "Ġreading": 4898,
      "boot": 4899,
      "Ġfunctions": 4900,
      "èĭ±": 4901,
      "Ġnature": 4902,
      "æĭī": 4903,
      "based": 4904,
      "Ġdriv": 4905,
      "èį¯": 4906,
      "base": 4907,
      "èĳ": 4908,
      "ateix": 4909,
      "band": 4910,
      "Ġnews": 4911,
      "Ġpoor": 4912,
      "Ġlocation": 4913,
      "known": 4914,
      "ĠCons": 4915,
      "usr": 4916,
      "Ġregion": 4917,
      "Ġbuilt": 4918,
      "/**": 4919,
      "gen": 4920,
      "ĠCap": 4921,
      "ema": 4922,
      "using": 4923,
      "Ġeconom": 4924,
      "Ġcommunic": 4925,
      "Config": 4926,
      "Ġsequ": 4927,
      "ĠEm": 4928,
      "aching": 4929,
      "Ġmit": 4930,
      "Ġir": 4931,
      ")(": 4932,
      "anes": 4933,
      "Ġavoid": 4934,
      "ĠDon": 4935,
      "ĠOf": 4936,
      "ktop": 4937,
      "ä¸Ģå®ļ": 4938,
      "Ġgran": 4939,
      "gener": 4940,
      "MS": 4941,
      "Ġequip": 4942,
      "atre": 4943,
      "å¦Ī": 4944,
      "ĠBu": 4945,
      "Ġmodern": 4946,
      "æĪĲä¸º": 4947,
      "vi": 4948,
      "alu": 4949,
      "ella": 4950,
      "Ġgames": 4951,
      "cer": 4952,
      "Ġfixed": 4953,
      "arcel": 4954,
      "ĠAg": 4955,
      "rar": 4956,
      "Ġrecent": 4957,
      "ĠAS": 4958,
      "ocal": 4959,
      "Ġdistribution": 4960,
      "iers": 4961,
      "æĭ©": 4962,
      "avy": 4963,
      "Ġdouble": 4964,
      "Ġsentence": 4965,
      "Ġhappy": 4966,
      "æ´»åĬ¨": 4967,
      "state": 4968,
      "ĠÐ¼Ð¾": 4969,
      "CC": 4970,
      "åĽŃ": 4971,
      "ĠJust": 4972,
      "èģĮ": 4973,
      "Ġcapt": 4974,
      "chan": 4975,
      "Ġlabel": 4976,
      "Ġlas": 4977,
      "Ġwhom": 4978,
      "oe": 4979,
      "conf": 4980,
      "create": 4981,
      "ĠID": 4982,
      "Ġcollect": 4983,
      "Ġoffice": 4984,
      "æķĻèĤ²": 4985,
      "ä¸ĸçķĮ": 4986,
      "Code": 4987,
      "ç©¶": 4988,
      "Ġemail": 4989,
      "itar": 4990,
      "****************": 4991,
      "çĬ¶": 4992,
      "MA": 4993,
      "rench": 4994,
      "Ġsetting": 4995,
      "block": 4996,
      "Ġtypes": 4997,
      "ufact": 4998,
      "Ġrole": 4999,
      "eks": 5000,
      "Ġdistance": 5001,
      "Ġgoes": 5002,
      "what": 5003,
      "vec": 5004,
      "åİĭ": 5005,
      "Ġanyone": 5006,
      "æĻº": 5007,
      "Ġcy": 5008,
      "Ã½": 5009,
      ".]": 5010,
      "wide": 5011,
      "Ġitems": 5012,
      "Ġsometimes": 5013,
      "Ġdog": 5014,
      "acing": 5015,
      "ements": 5016,
      "oul": 5017,
      "ĠChar": 5018,
      "Ġdead": 5019,
      "Ġandroid": 5020,
      "Ġcompos": 5021,
      "Att": 5022,
      "UL": 5023,
      "Service": 5024,
      "éĿĴ": 5025,
      "Ġpercent": 5026,
      "ĠEls": 5027,
      "overline": 5028,
      "Ġserve": 5029,
      "å±ŀ": 5030,
      "After": 5031,
      "she": 5032,
      "ĠKing": 5033,
      "ĠTHE": 5034,
      "åĳ³": 5035,
      "Ġ(!": 5036,
      "ights": 5037,
      "åĳ¢": 5038,
      "ÑĤÐµÐ»": 5039,
      "orithm": 5040,
      "option": 5041,
      "lient": 5042,
      "Ġdivers": 5043,
      "ç¤¾ä¼ļ": 5044,
      "varphi": 5045,
      "Big": 5046,
      "apache": 5047,
      "Ġhour": 5048,
      "Ġtim": 5049,
      "Ġnor": 5050,
      "ĠHer": 5051,
      "Out": 5052,
      "pan": 5053,
      "ĠSun": 5054,
      "Array": 5055,
      "å°Ķ": 5056,
      "Ġmix": 5057,
      "Ġgirl": 5058,
      "Ġexperi": 5059,
      "ĠIS": 5060,
      "unk": 5061,
      "Ġpassed": 5062,
      "Ġprior": 5063,
      "content": 5064,
      "ÃŃa": 5065,
      "requ": 5066,
      "Ġindustry": 5067,
      "eturn": 5068,
      "Ġexcept": 5069,
      "hol": 5070,
      "si": 5071,
      "nic": 5072,
      "xy": 5073,
      "åº·": 5074,
      "Ġjava": 5075,
      "Ġengine": 5076,
      "bolds": 5077,
      "enced": 5078,
      "å£°": 5079,
      "OP": 5080,
      "Ġsaf": 5081,
      "Ġexactly": 5082,
      "circ": 5083,
      "éĩįè¦ģ": 5084,
      "pat": 5085,
      "ocol": 5086,
      "ç»ıæµİ": 5087,
      "aste": 5088,
      "inally": 5089,
      "igo": 5090,
      "boldsymbol": 5091,
      "Ġcand": 5092,
      "ously": 5093,
      "aches": 5094,
      "ĉĉ<": 5095,
      "urance": 5096,
      "Ġcateg": 5097,
      "ĠStates": 5098,
      "æĮī": 5099,
      "eix": 5100,
      "Ð½Ð¾ÑģÑĤ": 5101,
      "Ġjud": 5102,
      "æŁĲ": 5103,
      "his": 5104,
      "Reg": 5105,
      "ä½¿çĶ¨": 5106,
      "frak": 5107,
      "Ġprevent": 5108,
      "Ġideas": 5109,
      "Ġsrc": 5110,
      "Ġciut": 5111,
      "query": 5112,
      "alle": 5113,
      "æ¥": 5114,
      "Ġdetect": 5115,
      "Ð´Ñĥ": 5116,
      "ĠSee": 5117,
      "Per": 5118,
      "Ġuses": 5119,
      "ql": 5120,
      "xx": 5121,
      "Ġcurrently": 5122,
      "Ġrefer": 5123,
      "Ġtowards": 5124,
      "Ġvoice": 5125,
      "Ġaverage": 5126,
      "Table": 5127,
      "Ġanys": 5128,
      "overn": 5129,
      "Ġball": 5130,
      "ç¦ı": 5131,
      "Ġfeet": 5132,
      "éĢīæĭ©": 5133,
      "idge": 5134,
      "&\\": 5135,
      "Log": 5136,
      "ÄĽ": 5137,
      "Ġsupply": 5138,
      "çļ®": 5139,
      "Ġsold": 5140,
      "fficient": 5141,
      "Size": 5142,
      "IV": 5143,
      "ĠLond": 5144,
      "gn": 5145,
      "ĠLord": 5146,
      "Ġtransform": 5147,
      "éħĴ": 5148,
      "Ġcop": 5149,
      "Ġviol": 5150,
      "Ġquery": 5151,
      "Ġcook": 5152,
      "vey": 5153,
      "[\\": 5154,
      "Trans": 5155,
      "Ġprofessional": 5156,
      "Ġoffers": 5157,
      "Ġworked": 5158,
      "Hand": 5159,
      "Ġglobal": 5160,
      "Ġeren": 5161,
      "iday": 5162,
      "Ġdeb": 5163,
      "Ġparameter": 5164,
      "Ġremember": 5165,
      "Ġcompar": 5166,
      "éĤ£ä¹Ī": 5167,
      "ĠSouth": 5168,
      "uge": 5169,
      "Ġallows": 5170,
      "Ġinn": 5171,
      "Ġbatter": 5172,
      "Ġ||Ġ": 5173,
      "ĠCity": 5174,
      "itc": 5175,
      "Ġcell": 5176,
      "Ġcomfort": 5177,
      "attle": 5178,
      "Ġlate": 5179,
      "ĠPC": 5180,
      "Ġimm": 5181,
      "Ġoccur": 5182,
      "Ġprep": 5183,
      "ĠEs": 5184,
      "ological": 5185,
      "Ġdepart": 5186,
      "Ġhundred": 5187,
      "å®īåħ¨": 5188,
      "éĻį": 5189,
      "Ġfeed": 5190,
      "Ġcatal": 5191,
      "ĠSch": 5192,
      "soft": 5193,
      "Ġforce": 5194,
      "ç¾¤": 5195,
      "uffer": 5196,
      "ili": 5197,
      "ersion": 5198,
      "Ġuns": 5199,
      ",--": 5200,
      "Ġcompanies": 5201,
      "mas": 5202,
      "ĠMiss": 5203,
      "grad": 5204,
      "Ġperhaps": 5205,
      "ques": 5206,
      "Est": 5207,
      "igation": 5208,
      "Ġreceive": 5209,
      "ration": 5210,
      "Ð±Ð°": 5211,
      "hline": 5212,
      "Ġenter": 5213,
      "ĠRev": 5214,
      "Ġship": 5215,
      "ĠNorth": 5216,
      "flow": 5217,
      "active": 5218,
      "å¡": 5219,
      "reet": 5220,
      "ĠMark": 5221,
      "Ġdif": 5222,
      "////////": 5223,
      "ancial": 5224,
      "ĠÑĨ": 5225,
      "Ġrandom": 5226,
      "Ġcharg": 5227,
      "ĠCatal": 5228,
      "ĠAut": 5229,
      "ĠĠĠĠĠĠĠĠĠĠĠĠĠĠĠĠĠĠĠĠĠĠĠĠĠĠĠ": 5230,
      "é¸": 5231,
      "FI": 5232,
      "Ġded": 5233,
      "èĻ½": 5234,
      "ecause": 5235,
      "pret": 5236,
      "Ġnone": 5237,
      "},\\": 5238,
      "ĠBrit": 5239,
      "System": 5240,
      "unction": 5241,
      "Ġphone": 5242,
      "Ġalone": 5243,
      "ĠPres": 5244,
      "Ġthrow": 5245,
      "foot": 5246,
      "Ã§os": 5247,
      "Ġmanagement": 5248,
      "Ġmulti": 5249,
      "æŀĹ": 5250,
      "ROM": 5251,
      "argin": 5252,
      "è¯Ń": 5253,
      "åħħ": 5254,
      "Ġagre": 5255,
      "Ġtask": 5256,
      "åŃ¦çĶŁ": 5257,
      "è´Ń": 5258,
      "åįĬ": 5259,
      "lin": 5260,
      ",'": 5261,
      "local": 5262,
      "bra": 5263,
      "ĠMc": 5264,
      "itable": 5265,
      "Ð¸Ð»": 5266,
      "ä½ľä¸º": 5267,
      "Ġtool": 5268,
      "Ġtal": 5269,
      "itter": 5270,
      "atge": 5271,
      "Ġimages": 5272,
      "Ġcomment": 5273,
      "sf": 5274,
      "ĠDE": 5275,
      "sole": 5276,
      "ÐĿ": 5277,
      "Ġcompl": 5278,
      "}).": 5279,
      "ä¼¤": 5280,
      "åĲ¬": 5281,
      "pol": 5282,
      "install": 5283,
      "Ð±Ðµ": 5284,
      "cap": 5285,
      "ĠGerm": 5286,
      "Ġconcern": 5287,
      "ĠHar": 5288,
      "Ġproperties": 5289,
      "Ġgold": 5290,
      "cing": 5291,
      "include": 5292,
      "Ġcenter": 5293,
      "mark": 5294,
      "LECT": 5295,
      "encies": 5296,
      "Ġrelationship": 5297,
      "iments": 5298,
      "Manager": 5299,
      "Ġaltern": 5300,
      "Ġstreng": 5301,
      "Ġincludes": 5302,
      "izes": 5303,
      "ĠAnt": 5304,
      "Ġphysical": 5305,
      "button": 5306,
      "ÑĮ": 5307,
      "åł": 5308,
      "ä¸¥": 5309,
      "Ġnumer": 5310,
      "Ġbecame": 5311,
      "atically": 5312,
      "uda": 5313,
      "dered": 5314,
      "åĩºçİ°": 5315,
      "ĠSec": 5316,
      "Inter": 5317,
      "Ġassociated": 5318,
      "Ġtree": 5319,
      "Ġabsol": 5320,
      "Ġresol": 5321,
      "è¿ĺæľī": 5322,
      "server": 5323,
      "ĠFig": 5324,
      "ares": 5325,
      "ĠTrans": 5326,
      "iven": 5327,
      "miss": 5328,
      "Ġobtained": 5329,
      "ĠAust": 5330,
      "well": 5331,
      "EE": 5332,
      "Ġneigh": 5333,
      "ä¾ĭ": 5334,
      "TS": 5335,
      "Ġyes": 5336,
      "aix": 5337,
      "Ġestat": 5338,
      "acional": 5339,
      "ĠDis": 5340,
      "Ġrout": 5341,
      "================": 5342,
      "çĨ": 5343,
      "Ġut": 5344,
      "æ¯į": 5345,
      "Ġanim": 5346,
      "æĿ¿": 5347,
      "Ġaix": 5348,
      "ech": 5349,
      "Ġcharge": 5350,
      "âĢł": 5351,
      "ä¿®": 5352,
      "Ġstra": 5353,
      "Ġsaying": 5354,
      "æī¾": 5355,
      "eful": 5356,
      "idden": 5357,
      "å¯Į": 5358,
      "Ġletter": 5359,
      "ĠOF": 5360,
      "çķĻ": 5361,
      "etc": 5362,
      "Ã±": 5363,
      "ociety": 5364,
      "è®¾è®¡": 5365,
      "uster": 5366,
      "Ġattention": 5367,
      "ÐµÑĤÐ¾": 5368,
      "Ġarr": 5369,
      "èŀį": 5370,
      "ĠNet": 5371,
      "abs": 5372,
      "orge": 5373,
      "ä¸ŃçļĦ": 5374,
      "åĿļ": 5375,
      "åİ¿": 5376,
      "Ġwife": 5377,
      "aily": 5378,
      "ny": 5379,
      "Ġhomes": 5380,
      "æĿİ": 5381,
      "Ġstar": 5382,
      "æ£Ģ": 5383,
      "Ġquickly": 5384,
      "å±Ĥ": 5385,
      "Ð¶Ð¸": 5386,
      "ĠÐºÑĬ": 5387,
      "define": 5388,
      "Ġtouch": 5389,
      "Message": 5390,
      "raint": 5391,
      "Ġdesigned": 5392,
      "Ġcele": 5393,
      "Ġdurant": 5394,
      "Ġwind": 5395,
      "Ġcontains": 5396,
      "Ġsurpr": 5397,
      "DB": 5398,
      "AA": 5399,
      "åĿĩ": 5400,
      "mathfrak": 5401,
      "ibly": 5402,
      "Ġgone": 5403,
      "iring": 5404,
      "äºĨä¸Ģ": 5405,
      "ja": 5406,
      "Ġaf": 5407,
      "è·Ł": 5408,
      "ĠÐľÐ°": 5409,
      "ipe": 5410,
      "Ġsecurity": 5411,
      "å½±åĵį": 5412,
      "Ġled": 5413,
      "ĠWorld": 5414,
      "Ġaccur": 5415,
      "adors": 5416,
      "ĠHol": 5417,
      "éŁ³": 5418,
      "ĠNe": 5419,
      "çĽĬ": 5420,
      "ĠMrs": 5421,
      "æĺ¥": 5422,
      "Ġpull": 5423,
      "Ð²ÑĬÑĢ": 5424,
      "Ġsituation": 5425,
      "Ġsurface": 5426,
      "Ġproced": 5427,
      "ĠSw": 5428,
      "ini": 5429,
      "Ġrisk": 5430,
      "Ġtrust": 5431,
      "åºĹ": 5432,
      "mo": 5433,
      "isme": 5434,
      "Ġbur": 5435,
      "Ġconvert": 5436,
      "ä¹ĭåĲİ": 5437,
      "ç®Ģ": 5438,
      "Ġrow": 5439,
      "çŁ³": 5440,
      "Ġprimer": 5441,
      "Ġimpact": 5442,
      "Ġdriver": 5443,
      "post": 5444,
      "Ġcouple": 5445,
      "Ġareas": 5446,
      "ÅĻ": 5447,
      "Ġrom": 5448,
      "Ġcontract": 5449,
      "Ġensure": 5450,
      "Ġeffective": 5451,
      "Ġchanged": 5452,
      "Ġrecently": 5453,
      "ĠMad": 5454,
      "Ġactive": 5455,
      "year": 5456,
      "ube": 5457,
      "ancy": 5458,
      "Ġmort": 5459,
      "Es": 5460,
      "æķħ": 5461,
      "ocket": 5462,
      "Ġsleep": 5463,
      "äºī": 5464,
      "ugh": 5465,
      "how": 5466,
      "Ġreference": 5467,
      "image": 5468,
      "Ġma": 5469,
      "ĠSchool": 5470,
      "Ġheight": 5471,
      "Ġinteresting": 5472,
      "Rec": 5473,
      "Ġpurpose": 5474,
      "è´¢": 5475,
      "Ġdirection": 5476,
      "They": 5477,
      "ÑĢÐµÐ´": 5478,
      "Ġmateix": 5479,
      "é¡¹çĽ®": 5480,
      "Ġtechnology": 5481,
      "Ġfollowed": 5482,
      "Ġresta": 5483,
      "ĠPat": 5484,
      "dat": 5485,
      "mes": 5486,
      "Ġblue": 5487,
      "Ġdep": 5488,
      "åĪĴ": 5489,
      "ĠPal": 5490,
      "Ġwide": 5491,
      "ynt": 5492,
      "ĠAug": 5493,
      "cs": 5494,
      "long": 5495,
      "åĩı": 5496,
      "gt": 5497,
      "ĠSince": 5498,
      "ptions": 5499,
      "Ġeveryone": 5500,
      "Ġbooks": 5501,
      "Our": 5502,
      "Ġstatus": 5503,
      "Ġchance": 5504,
      "TH": 5505,
      "MP": 5506,
      "Ġdemand": 5507,
      "Ġcompletely": 5508,
      "æĬķèµĦ": 5509,
      "core": 5510,
      "ivil": 5511,
      "Ġep": 5512,
      "æĵ": 5513,
      "å±ħ": 5514,
      "åħļ": 5515,
      "ĠUp": 5516,
      "ÑīÐ¸": 5517,
      "Ġsea": 5518,
      "Ġmi": 5519,
      "rep": 5520,
      "Ġcoun": 5521,
      "åŃ£": 5522,
      "å²ģ": 5523,
      "Ġnice": 5524,
      "Ġhair": 5525,
      "apping": 5526,
      "æĢİ": 5527,
      "ĠAng": 5528,
      "åĶ®": 5529,
      "èĮĥ": 5530,
      "Ġstream": 5531,
      "ÑħÐ¾": 5532,
      "éĶĻ": 5533,
      "é¦Ļ": 5534,
      "èīº": 5535,
      "mitted": 5536,
      "ĠUSB": 5537,
      "fs": 5538,
      "è¿Ļç§į": 5539,
      "Ġshop": 5540,
      "Ġdisk": 5541,
      "web": 5542,
      "ameter": 5543,
      "ĠHigh": 5544,
      "Ġcool": 5545,
      "Ġpractice": 5546,
      "Ãºs": 5547,
      "Ġ===": 5548,
      "ĠNational": 5549,
      "uts": 5550,
      "ĠSE": 5551,
      "Ġsolutions": 5552,
      "ĠPort": 5553,
      "Che": 5554,
      "ensions": 5555,
      "struct": 5556,
      "Ðŀ": 5557,
      "Ġrelig": 5558,
      "Ġcustomers": 5559,
      "ford": 5560,
      "Ġgreen": 5561,
      "Ġmaintain": 5562,
      "Ġrecommend": 5563,
      "Ġpen": 5564,
      "Ġlarger": 5565,
      "å®³": 5566,
      "ĠDav": 5567,
      "å°½": 5568,
      "lÃŃcul": 5569,
      "Ġfresh": 5570,
      "pa": 5571,
      "css": 5572,
      "Ġconduct": 5573,
      "Ġpolicy": 5574,
      "Ġtheory": 5575,
      "Ġ__": 5576,
      "è¯Ħ": 5577,
      "Ġvariable": 5578,
      "ĠAcc": 5579,
      "Ġconstruct": 5580,
      "æĺ¯ä¸Ģ": 5581,
      "Ġfully": 5582,
      "Ġtip": 5583,
      "ĠAND": 5584,
      "Ġincluded": 5585,
      "page": 5586,
      "æĿĲ": 5587,
      "Ġthous": 5588,
      "])": 5589,
      "ocation": 5590,
      "Ġstru": 5591,
      "ä»¥åıĬ": 5592,
      "icient": 5593,
      "ĠGoogle": 5594,
      "è§Ĵ": 5595,
      "car": 5596,
      "Ġpal": 5597,
      "Ġsteps": 5598,
      "Ġrat": 5599,
      "Â»": 5600,
      "Ġmember": 5601,
      "poss": 5602,
      "ç¾İåĽ½": 5603,
      "uct": 5604,
      "NS": 5605,
      "Ġfigure": 5606,
      "Ð¸Ð·": 5607,
      "run": 5608,
      "main": 5609,
      "ÑĤÑĥ": 5610,
      "Count": 5611,
      "small": 5612,
      "Ġevalu": 5613,
      "è¡¥": 5614,
      "Ġterr": 5615,
      "uciÃ³": 5616,
      "Ġuseful": 5617,
      "Ass": 5618,
      "ĠStud": 5619,
      "yond": 5620,
      "Ġunit": 5621,
      "Ġfields": 5622,
      "Ġbill": 5623,
      "Ġprogress": 5624,
      "åı¤": 5625,
      "Ġproof": 5626,
      "Ġpartition": 5627,
      "eff": 5628,
      "æ¯Ķè¾ĥ": 5629,
      "é¾Ļ": 5630,
      "ÑĤÑĢÐ°": 5631,
      "langle": 5632,
      "é»ĳ": 5633,
      "dir": 5634,
      "ĠSan": 5635,
      "Date": 5636,
      "å¿µ": 5637,
      "çİ©": 5638,
      "ä¸»è¦ģ": 5639,
      "has": 5640,
      "Ġreturned": 5641,
      "Ġcarry": 5642,
      "ĠWest": 5643,
      "ico": 5644,
      "Ġsong": 5645,
      "model": 5646,
      "æľĭ": 5647,
      "åħį": 5648,
      "augh": 5649,
      "åĪĿ": 5650,
      "tered": 5651,
      "Yes": 5652,
      "åĪĹ": 5653,
      "ncia": 5654,
      "Ġfear": 5655,
      "atever": 5656,
      "åĩ»": 5657,
      "ĠRem": 5658,
      "Ġmess": 5659,
      "æŃ»": 5660,
      "jo": 5661,
      "åıĳçİ°": 5662,
      "Ġslight": 5663,
      "otes": 5664,
      "ä¸įä¼ļ": 5665,
      "assert": 5666,
      "èĢĮä¸Ķ": 5667,
      "??": 5668,
      "Ġformer": 5669,
      "ÑģÑĤÐµ": 5670,
      "ÐµÐº": 5671,
      "semb": 5672,
      "embre": 5673,
      "Ġfet": 5674,
      "Ġmunicip": 5675,
      "Ġprincipal": 5676,
      "aquest": 5677,
      "names": 5678,
      "\\%": 5679,
      "æī¿": 5680,
      "eria": 5681,
      "Call": 5682,
      "ĠÐĹ": 5683,
      "FA": 5684,
      "è®²": 5685,
      "ashing": 5686,
      "wood": 5687,
      "Ġincl": 5688,
      "Ġpair": 5689,
      "Ġsav": 5690,
      "Ġgets": 5691,
      "æĸĩåĮĸ": 5692,
      "Ġphase": 5693,
      "itation": 5694,
      "Ġestaven": 5695,
      "Ġdynam": 5696,
      "unities": 5697,
      "Lambda": 5698,
      "textit": 5699,
      "ldots": 5700,
      "åľŁ": 5701,
      "æĿ¥çļĦ": 5702,
      "èŃ": 5703,
      "cons": 5704,
      "Ġmal": 5705,
      "Ð²Ñı": 5706,
      "çĽ®åīį": 5707,
      "Ġquar": 5708,
      "Color": 5709,
      "ishing": 5710,
      "Ġunivers": 5711,
      "Ġveh": 5712,
      "ua": 5713,
      "å»ºè®¾": 5714,
      "note": 5715,
      "Sub": 5716,
      "Ġstaff": 5717,
      "lang": 5718,
      "User": 5719,
      "Lay": 5720,
      "had": 5721,
      "eny": 5722,
      "Ġsafe": 5723,
      "ialog": 5724,
      "aciÃ³n": 5725,
      "Ġaltres": 5726,
      "Ġboy": 5727,
      "Ġdescribed": 5728,
      "inct": 5729,
      "Ġbottom": 5730,
      "ABLE": 5731,
      "Ġmaster": 5732,
      "ÑģÐ½Ð¾": 5733,
      "ĉ&": 5734,
      "Ġinsp": 5735,
      "ulations": 5736,
      "arily": 5737,
      "Ġpicture": 5738,
      "iled": 5739,
      "ounds": 5740,
      "appa": 5741,
      "Ġfont": 5742,
      "Ġgiving": 5743,
      "Ġnumbers": 5744,
      "aker": 5745,
      "Ġweeks": 5746,
      "é²": 5747,
      "hern": 5748,
      "ĠApr": 5749,
      "exp": 5750,
      "Ġdegree": 5751,
      "ÑĬÐ»Ð³Ð°ÑĢ": 5752,
      "Ġmer": 5753,
      "çĽĺ": 5754,
      "Ġscale": 5755,
      "Ġexpression": 5756,
      "ĠPost": 5757,
      "Ġcert": 5758,
      "Ġthinking": 5759,
      "det": 5760,
      "Ġeffects": 5761,
      "irth": 5762,
      "èĥ½å¤Ł": 5763,
      "rief": 5764,
      "Ġcatch": 5765,
      "UE": 5766,
      "UM": 5767,
      "ĠRed": 5768,
      "works": 5769,
      ".\\": 5770,
      "atory": 5771,
      "asons": 5772,
      "Ð¶Ð´Ð°": 5773,
      "Ġcry": 5774,
      "Ġacqu": 5775,
      "ĠGeneral": 5776,
      "éĥ¨åĪĨ": 5777,
      "åŃ¦ä¹ł": 5778,
      "ials": 5779,
      "arden": 5780,
      "aby": 5781,
      "åŁŁ": 5782,
      "Ġspirit": 5783,
      "rive": 5784,
      "Ġcomponent": 5785,
      "build": 5786,
      "ĠNOT": 5787,
      "Ġamaz": 5788,
      "Ġborder": 5789,
      "æĹħ": 5790,
      "ĠVa": 5791,
      "äººæ°ĳ": 5792,
      "Ġexecut": 5793,
      "urt": 5794,
      "Model": 5795,
      "Ġcollection": 5796,
      "ocr": 5797,
      "Ġmes": 5798,
      "Ġalthough": 5799,
      "ç³»ç»Ł": 5800,
      "ees": 5801,
      "ç¿": 5802,
      "åħ¶å®ŀ": 5803,
      "ĠWhile": 5804,
      "ä¸ĬçļĦ": 5805,
      "Ġcada": 5806,
      "å¸®": 5807,
      "Ġbi": 5808,
      "OW": 5809,
      "deb": 5810,
      "ova": 5811,
      "ĠÐ¼Ð°": 5812,
      "Ġviv": 5813,
      "Ġgas": 5814,
      "aling": 5815,
      "home": 5816,
      "Ġ};": 5817,
      "æ±½": 5818,
      "ĠOct": 5819,
      "cp": 5820,
      "Ð½Ð¸Ðº": 5821,
      "Ġdirectory": 5822,
      "ĠÐĿÐ°": 5823,
      "current": 5824,
      "acer": 5825,
      "Ġhop": 5826,
      "åĨĻ": 5827,
      "åĽ´": 5828,
      "äººåĳĺ": 5829,
      "èŃ¦": 5830,
      "ky": 5831,
      "ĠBro": 5832,
      "Ġpiece": 5833,
      "unes": 5834,
      "rie": 5835,
      "æľĭåıĭ": 5836,
      "Ð¸ÑĤÐµÐ»": 5837,
      "artment": 5838,
      "ensure": 5839,
      "Ġopportunity": 5840,
      "citep": 5841,
      "Ġbroad": 5842,
      "VER": 5843,
      "æĪĸèĢħ": 5844,
      "look": 5845,
      "ĠÐŁÐ¾": 5846,
      "erences": 5847,
      "ename": 5848,
      "ĉ{": 5849,
      "Ġinj": 5850,
      "Ġmanufact": 5851,
      "Ġmatrix": 5852,
      "oma": 5853,
      "Ġzero": 5854,
      "ĠDef": 5855,
      "Ġgroups": 5856,
      "Ġbutton": 5857,
      "ugin": 5858,
      "]:": 5859,
      "è´Ł": 5860,
      "ĠĠĠĠĠĠĠĠĠĠĠĠĠĠĠĠĠĠĠĠ<": 5861,
      "èĥ½åĬĽ": 5862,
      "ellent": 5863,
      "|^": 5864,
      "Ġarm": 5865,
      "Ġrepe": 5866,
      "ÑĦÐ¸": 5867,
      "ä¸įåĲĮ": 5868,
      "Ġstarting": 5869,
      "çŃĸ": 5870,
      "Ġarriv": 5871,
      "Ġdress": 5872,
      "ald": 5873,
      "Ġfort": 5874,
      "case": 5875,
      "orrow": 5876,
      "Ġleading": 5877,
      "ĠRE": 5878,
      "itants": 5879,
      "èĪ¬": 5880,
      "Ġconv": 5881,
      "è¦ģæ±Ĥ": 5882,
      "ka": 5883,
      "Ð²ÐµÐ½": 5884,
      "person": 5885,
      "ĠÐ¿Ðµ": 5886,
      "ĠLes": 5887,
      "pected": 5888,
      "ÐºÐµ": 5889,
      "Ġign": 5890,
      "ĠList": 5891,
      "Ġbeyond": 5892,
      "Phi": 5893,
      "æ¤": 5894,
      "Can": 5895,
      "Ġlatest": 5896,
      "char": 5897,
      "ĠWhy": 5898,
      "ĠFirst": 5899,
      "ĠSub": 5900,
      "Ġhit": 5901,
      "ĠPark": 5902,
      "Des": 5903,
      "Ġter": 5904,
      "Ġproduction": 5905,
      "google": 5906,
      "ilde": 5907,
      "istics": 5908,
      "Ġroll": 5909,
      "Ġdoubt": 5910,
      "za": 5911,
      "ĠÐ²Ð¸": 5912,
      "arcelona": 5913,
      "å¾ħ": 5914,
      "Ġtruth": 5915,
      "æŃ¢": 5916,
      "çł´": 5917,
      "ĠLondon": 5918,
      "Ġthroughout": 5919,
      "ĠVol": 5920,
      "adem": 5921,
      "äºĴ": 5922,
      "Ġequal": 5923,
      "ĠÂ«": 5924,
      "oms": 5925,
      "Ġsam": 5926,
      "Ġblood": 5927,
      "Ġdefine": 5928,
      "Ġreach": 5929,
      "((": 5930,
      "king": 5931,
      "cles": 5932,
      "Ġcorresponding": 5933,
      "çīĪ": 5934,
      "Ġedge": 5935,
      "Ġtempor": 5936,
      "Ġtemperature": 5937,
      "ALL": 5938,
      "Ġcat": 5939,
      "Ġmid": 5940,
      "Ġforma": 5941,
      "Ġapplications": 5942,
      "Ġopin": 5943,
      "Ġmicro": 5944,
      "æĻ®": 5945,
      "sa": 5946,
      "child": 5947,
      "actory": 5948,
      "Ġinternal": 5949,
      "only": 5950,
      "TD": 5951,
      "äºļ": 5952,
      "Ġadvant": 5953,
      "open": 5954,
      "Ġrend": 5955,
      "oni": 5956,
      "EX": 5957,
      "inn": 5958,
      "Pr": 5959,
      "Client": 5960,
      "fol": 5961,
      "Ġsettings": 5962,
      "ĠSal": 5963,
      "iling": 5964,
      "itchen": 5965,
      "cher": 5966,
      "Ġpued": 5967,
      "actions": 5968,
      "Ġvict": 5969,
      "åįı": 5970,
      "SP": 5971,
      "ä¸įè¦ģ": 5972,
      "äºĳ": 5973,
      "uary": 5974,
      "ĠSQL": 5975,
      "Ġkept": 5976,
      "dist": 5977,
      "ows": 5978,
      "Ġfailed": 5979,
      "ago": 5980,
      "llaÃ§os": 5981,
      "ano": 5982,
      "Ġallowed": 5983,
      "éĵ¶": 5984,
      "ĠHouse": 5985,
      "gar": 5986,
      "iced": 5987,
      "event": 5988,
      "Ġvac": 5989,
      "èµ·æĿ¥": 5990,
      "Dis": 5991,
      "åįĥ": 5992,
      "ä¸¾": 5993,
      "agon": 5994,
      "Query": 5995,
      "ups": 5996,
      "Ġcelebr": 5997,
      "è¯»": 5998,
      "åĸĦ": 5999,
      "ÐºÑĥ": 6000,
      "Ġconfiguration": 6001,
      "house": 6002,
      "èĻ½çĦ¶": 6003,
      "ido": 6004,
      "iform": 6005,
      "ague": 6006,
      "æĽ¾": 6007,
      "client": 6008,
      "Ġeye": 6009,
      "sem": 6010,
      "anged": 6011,
      "othing": 6012,
      "ĠFrench": 6013,
      "Note": 6014,
      "End": 6015,
      "CD": 6016,
      "æ²³": 6017,
      "nabla": 6018,
      "atively": 6019,
      "Oh": 6020,
      "subset": 6021,
      "eline": 6022,
      "Ġgrowth": 6023,
      "Ġessential": 6024,
      "Ġoffic": 6025,
      "ĠÑģÑĤÐ°": 6026,
      "åı²": 6027,
      "Ġindeed": 6028,
      "aly": 6029,
      "dim": 6030,
      "Ġtreatment": 6031,
      "æıĲä¾Ľ": 6032,
      "Ġja": 6033,
      "Ġearth": 6034,
      "rect": 6035,
      "Ġexterns": 6036,
      "Ð½Ð¾ÑĤÐ¾": 6037,
      "usion": 6038,
      "Ġstraight": 6039,
      "oria": 6040,
      "itors": 6041,
      "}),": 6042,
      "Ð»Ñİ": 6043,
      "Ġassume": 6044,
      "Ġgenerally": 6045,
      "æĻļ": 6046,
      "Ġfight": 6047,
      "Ġentry": 6048,
      "UP": 6049,
      "ĠOff": 6050,
      "Ġexists": 6051,
      "iÃł": 6052,
      "çĶ»": 6053,
      "Ġmaximum": 6054,
      "åĲ¦": 6055,
      "lying": 6056,
      "Ġcertainly": 6057,
      "mbox": 6058,
      "kappa": 6059,
      "Ġgent": 6060,
      "å®ĺ": 6061,
      "HT": 6062,
      "Ġmolt": 6063,
      "oto": 6064,
      "\\!": 6065,
      "Ġplaying": 6066,
      "ĠAlso": 6067,
      "Ġprefer": 6068,
      "Ġequival": 6069,
      "ÑĪÐµ": 6070,
      "Ġappropri": 6071,
      "è¿Ļä¸Ģ": 6072,
      "Ġoptim": 6073,
      "ests": 6074,
      "Ġcapital": 6075,
      "Ġclosed": 6076,
      "Ġhabitat": 6077,
      "ishes": 6078,
      "Ġserious": 6079,
      "rey": 6080,
      "ĠÐ¿Ð¾Ð´": 6081,
      "false": 6082,
      "å¿Ĺ": 6083,
      "Ġfactor": 6084,
      "Ġconsult": 6085,
      "Ġeducation": 6086,
      "then": 6087,
      "Ġciutat": 6088,
      "rees": 6089,
      "erior": 6090,
      "Ġhappen": 6091,
      "ĠAmerica": 6092,
      "å¾ĭ": 6093,
      "æ¹ĸ": 6094,
      "çłĶç©¶": 6095,
      "Ġexperiment": 6096,
      "first": 6097,
      "contain": 6098,
      "ĠOS": 6099,
      "isions": 6100,
      "Äį": 6101,
      "roy": 6102,
      "Ab": 6103,
      "çªģ": 6104,
      "EnllaÃ§os": 6105,
      "Ġlives": 6106,
      "height": 6107,
      "btn": 6108,
      "Ġmechan": 6109,
      "åĲ§": 6110,
      "CK": 6111,
      "Ġapproxim": 6112,
      "ä¸įè¿ĩ": 6113,
      "ĉĉĉ<": 6114,
      "ä¸ºäºĨ": 6115,
      "ĠSol": 6116,
      "Ġcu": 6117,
      "asion": 6118,
      "rase": 6119,
      "Ġlevels": 6120,
      "ĠAc": 6121,
      "Ġfig": 6122,
      "Ġnearly": 6123,
      "PU": 6124,
      "çĽĳ": 6125,
      "Ġfilm": 6126,
      "rd": 6127,
      "ĠĠĠĠ$": 6128,
      "Ġvector": 6129,
      "Ġpare": 6130,
      "lier": 6131,
      "Ġappre": 6132,
      "ulate": 6133,
      "Ġprem": 6134,
      "grade": 6135,
      "android": 6136,
      "Ġtres": 6137,
      "Ġheat": 6138,
      "Ġdecided": 6139,
      "AME": 6140,
      "rowser": 6141,
      "Ġgreater": 6142,
      "åįļ": 6143,
      "oted": 6144,
      "Ġconver": 6145,
      "ris": 6146,
      "ĠClass": 6147,
      "itory": 6148,
      "Ġfeeling": 6149,
      "Ġtreball": 6150,
      "igen": 6151,
      "ithub": 6152,
      "ĉĉĉĉ<": 6153,
      "itution": 6154,
      "INE": 6155,
      "Ġcold": 6156,
      "bert": 6157,
      "Ġstatement": 6158,
      "Sup": 6159,
      "uls": 6160,
      "Ġimmediately": 6161,
      "Ġtools": 6162,
      "åħ´": 6163,
      "Ġmanner": 6164,
      "çĭ¬": 6165,
      "lig": 6166,
      "rum": 6167,
      "Ġcomponents": 6168,
      "Ġplaces": 6169,
      "Ġcomo": 6170,
      "oes": 6171,
      "ÃŃst": 6172,
      "Ġdatas": 6173,
      "Ġfirm": 6174,
      "ĠMarch": 6175,
      "TO": 6176,
      "Ġresources": 6177,
      "ython": 6178,
      "Ð²ÑĢÐ¸": 6179,
      "Hz": 6180,
      "otimes": 6181,
      "omb": 6182,
      "Ġsex": 6183,
      "Ġability": 6184,
      "Ġbank": 6185,
      "ensuremath": 6186,
      "Ġindependent": 6187,
      "Ġpriv": 6188,
      "null": 6189,
      "æĪı": 6190,
      "Aut": 6191,
      "éĢģ": 6192,
      "Ġobserved": 6193,
      "åĲ¸": 6194,
      "Ġdiss": 6195,
      "Ġsin": 6196,
      "Ðľ": 6197,
      "çĵ": 6198,
      "Ġsolid": 6199,
      "çıŃ": 6200,
      "Ġjo": 6201,
      "æ¿": 6202,
      "Ġ;": 6203,
      "sql": 6204,
      "ĠCenter": 6205,
      "Ġgoal": 6206,
      "Ġcompared": 6207,
      "Ġing": 6208,
      "ima": 6209,
      "è¯ī": 6210,
      "Ġdevices": 6211,
      "Ð½Ð¸ÐµÑĤÐ¾": 6212,
      "Ġ>Ġ": 6213,
      "ä¸ªäºº": 6214,
      "åĸľæ¬¢": 6215,
      "ĠÐ¿ÑĢÐµÐ´": 6216,
      "level": 6217,
      "mail": 6218,
      "Ġconsum": 6219,
      "erve": 6220,
      "Ġskin": 6221,
      "åº§": 6222,
      "Ġanaly": 6223,
      "èĤī": 6224,
      "Ġoperation": 6225,
      "Ġfilter": 6226,
      "åģľ": 6227,
      "cel": 6228,
      "Ġsets": 6229,
      "Ġmodule": 6230,
      "SQL": 6231,
      "Ð¼Ð°Ð½": 6232,
      "anys": 6233,
      "Ġrequires": 6234,
      "å·®": 6235,
      "Ġ``": 6236,
      "Ġsummer": 6237,
      "åħ¶ä»ĸ": 6238,
      "æĸ¹å¼ı": 6239,
      "åºľ": 6240,
      "è¯¾": 6241,
      "ĠMag": 6242,
      "Ġbrand": 6243,
      "Ġmeeting": 6244,
      "Ġoil": 6245,
      "\"#": 6246,
      "rer": 6247,
      "ĠWeb": 6248,
      "](": 6249,
      "hest": 6250,
      "Ġcustomer": 6251,
      "istry": 6252,
      "Ġbrother": 6253,
      "ctors": 6254,
      "icense": 6255,
      "Ġrelease": 6256,
      "izer": 6257,
      "ÑĦÐ¸Ñı": 6258,
      "Ġplatform": 6259,
      "äº«": 6260,
      "ä¿¡æģ¯": 6261,
      "sy": 6262,
      "çŁŃ": 6263,
      "Ġkernel": 6264,
      "Ġtend": 6265,
      "Ġvariety": 6266,
      "Ġappears": 6267,
      "Ġdream": 6268,
      "å¸Į": 6269,
      "Ġofficial": 6270,
      "Ġlayer": 6271,
      "åı¦": 6272,
      "åŁİå¸Ĥ": 6273,
      "æł¸": 6274,
      "ournal": 6275,
      "æ¦": 6276,
      "dot": 6277,
      "Ð²Ð°ÑĤÐ°": 6278,
      "Ġbeginning": 6279,
      "aries": 6280,
      "have": 6281,
      "ĠMart": 6282,
      "cos": 6283,
      "Ġstd": 6284,
      "Ġwarm": 6285,
      "âĢ¢": 6286,
      "Ġauto": 6287,
      "Ġlocated": 6288,
      "Ġexisting": 6289,
      "åį¡": 6290,
      "Ġselected": 6291,
      "Ġrule": 6292,
      "å¤§åŃ¦": 6293,
      "Ġgrand": 6294,
      "Ġcos": 6295,
      "ĠAny": 6296,
      ",-": 6297,
      "ĠMus": 6298,
      "spec": 6299,
      "connect": 6300,
      "Ġrot": 6301,
      "ĠMor": 6302,
      "ĠfamÃŃlia": 6303,
      "ĠOpen": 6304,
      "zy": 6305,
      "plicit": 6306,
      "Ġvel": 6307,
      "First": 6308,
      "Ð»ÐµÐ½": 6309,
      "method": 6310,
      "Ġtill": 6311,
      "ĠBarcelona": 6312,
      "Ġinterface": 6313,
      "Ġlinear": 6314,
      "Ġstrength": 6315,
      "ieved": 6316,
      "[\"": 6317,
      "Ġapplied": 6318,
      "æĭħ": 6319,
      "png": 6320,
      "ĠCamp": 6321,
      "ulated": 6322,
      "Ġgain": 6323,
      "ÑĩÐ°ÑģÑĤ": 6324,
      "ĠJo": 6325,
      ">>": 6326,
      "undle": 6327,
      "Override": 6328,
      "Ġwindows": 6329,
      "Select": 6330,
      "Ġpredict": 6331,
      "Ġcentral": 6332,
      "Ġpow": 6333,
      "antic": 6334,
      "ĠLem": 6335,
      "Ġsample": 6336,
      "Ġ]": 6337,
      "pc": 6338,
      "Ġfinally": 6339,
      "Ġfinancial": 6340,
      "aled": 6341,
      "Ġequation": 6342,
      "Ġrob": 6343,
      "è®¤ä¸º": 6344,
      "æµĭ": 6345,
      "çĪ¶": 6346,
      "Ġrele": 6347,
      "æ½": 6348,
      "context": 6349,
      "Ġmentioned": 6350,
      "Ġachieve": 6351,
      "levant": 6352,
      "Property": 6353,
      "ĠBlack": 6354,
      "Ġstage": 6355,
      "ds": 6356,
      "Ġdecision": 6357,
      "last": 6358,
      "Ġmitj": 6359,
      "Ġrespectively": 6360,
      "ĠÐļÐ°": 6361,
      "ael": 6362,
      "appro": 6363,
      "èıľ": 6364,
      "Ġsudden": 6365,
      "oding": 6366,
      "è¡¨ç¤º": 6367,
      "%,": 6368,
      "ĠOut": 6369,
      "ĠWar": 6370,
      "amily": 6371,
      "Ġmenu": 6372,
      "ÐºÐ°ÑĤÐ°": 6373,
      "æĦ¿": 6374,
      "Ġwire": 6375,
      "\"../../../../": 6376,
      "Ġhus": 6377,
      "Ġproposed": 6378,
      "img": 6379,
      "EL": 6380,
      "æį¢": 6381,
      "Ġinfo": 6382,
      "Ġhighly": 6383,
      "Ġguess": 6384,
      "itary": 6385,
      "Ġtransfer": 6386,
      "find": 6387,
      "icks": 6388,
      "Ġmist": 6389,
      "initely": 6390,
      "Sigma": 6391,
      "ville": 6392,
      "Ġecho": 6393,
      "ç¼ĸ": 6394,
      "Ð»Ð¸Ñı": 6395,
      "èĽ": 6396,
      "PC": 6397,
      "Ġfrequency": 6398,
      "\").": 6399,
      "enge": 6400,
      "ĠÑģÐ»ÐµÐ´": 6401,
      "æĭ¿": 6402,
      "SC": 6403,
      "/\\": 6404,
      "arant": 6405,
      "Ġking": 6406,
      "Ġconcept": 6407,
      "Ġconstruction": 6408,
      "åºĶè¯¥": 6409,
      "ĠST": 6410,
      "ä¸ĢçĽ´": 6411,
      "static": 6412,
      "Ġdescription": 6413,
      "service": 6414,
      "ĠApple": 6415,
      "Ġextrem": 6416,
      "Ġlimited": 6417,
      "ributed": 6418,
      "Ġjoin": 6419,
      "Ġexerc": 6420,
      "åĺ": 6421,
      "package": 6422,
      "Ġfem": 6423,
      "Ġdensity": 6424,
      "Fil": 6425,
      "Ġmas": 6426,
      "rote": 6427,
      "ĠLib": 6428,
      "Ġhandle": 6429,
      "emplate": 6430,
      "Ġconstru": 6431,
      "Net": 6432,
      "Ð¼Ð²ÑĢÐ¸": 6433,
      "ĠFranc": 6434,
      "ĠEngland": 6435,
      "yles": 6436,
      "Bar": 6437,
      "Ġbattery": 6438,
      "dots": 6439,
      "ÐºÑĤÐ¾": 6440,
      "Ġclasses": 6441,
      "Part": 6442,
      "Ġkids": 6443,
      "ç»Ŀ": 6444,
      "å©ļ": 6445,
      "len": 6446,
      "orph": 6447,
      "overy": 6448,
      "write": 6449,
      "rat": 6450,
      "Ġhar": 6451,
      "ingu": 6452,
      "Ġgal": 6453,
      "}}{": 6454,
      "ç»ĩ": 6455,
      "ĠPlease": 6456,
      "è´§": 6457,
      "aris": 6458,
      "Ġbecomes": 6459,
      "while": 6460,
      "display": 6461,
      "Ġbasis": 6462,
      "åıĳçĶŁ": 6463,
      "Ġbright": 6464,
      "Ġtor": 6465,
      "Ġ||Ġ||Ġ": 6466,
      "ntic": 6467,
      "({": 6468,
      "ç¥¨": 6469,
      "Ð¸ÑĤÐ¾": 6470,
      "Ġdesp": 6471,
      "ĠRead": 6472,
      "acle": 6473,
      "pers": 6474,
      "Ġnotice": 6475,
      "Ġnil": 6476,
      "ĠAre": 6477,
      "ÑīÐ¾": 6478,
      "pet": 6479,
      "ashion": 6480,
      "apped": 6481,
      "centering": 6482,
      "æ¿Ģ": 6483,
      "cha": 6484,
      "ç´§": 6485,
      "Ġhttps": 6486,
      "num": 6487,
      "Ġsecret": 6488,
      "Ġsudo": 6489,
      "ĠServer": 6490,
      "æīĢæľī": 6491,
      "ä¸Ģæł·": 6492,
      "Ġdemon": 6493,
      "flo": 6494,
      "ĠBen": 6495,
      "ÑĪÐ¸": 6496,
      "ĠPhil": 6497,
      "Line": 6498,
      "ĠData": 6499,
      "Ext": 6500,
      "Method": 6501,
      "However": 6502,
      "ĠSM": 6503,
      "ributes": 6504,
      "raction": 6505,
      "RA": 6506,
      "DF": 6507,
      "ä½łçļĦ": 6508,
      "Ġstuff": 6509,
      "ĠAquest": 6510,
      "ĠON": 6511,
      "ĠApril": 6512,
      "CON": 6513,
      "pling": 6514,
      "Ġclients": 6515,
      "adding": 6516,
      "Ġmiddle": 6517,
      "ĠTest": 6518,
      "Ġcourt": 6519,
      "ĠÑĢÐ¾": 6520,
      "ifying": 6521,
      "Response": 6522,
      "Ġpassword": 6523,
      "Ġeight": 6524,
      "Ġdefinition": 6525,
      "him": 6526,
      "Ġincor": 6527,
      "Ġobj": 6528,
      "Ġlock": 6529,
      "Ġvolume": 6530,
      "ĠestÃł": 6531,
      "Ġampl": 6532,
      "ĠÐ£": 6533,
      "æĤ£": 6534,
      "Ġdaugh": 6535,
      "Start": 6536,
      "ĠStr": 6537,
      "Ġprimera": 6538,
      "å®¤": 6539,
      "ibli": 6540,
      "Ġeat": 6541,
      "Ð½Ð³": 6542,
      "github": 6543,
      "Ġrules": 6544,
      "rely": 6545,
      "Input": 6546,
      "Ġmoving": 6547,
      "Ġcab": 6548,
      "ĠĠĠĠĠĠĠĠĠĠĠĠĠĠĠĠĠ": 6549,
      "pdf": 6550,
      "Ġcru": 6551,
      "ä¸Ńå¿ĥ": 6552,
      "èĴ": 6553,
      "åĪļ": 6554,
      "request": 6555,
      "Ġinvestig": 6556,
      "Ġinterested": 6557,
      "ĠHam": 6558,
      "frame": 6559,
      "Ġcredit": 6560,
      "rics": 6561,
      "è¡Įä¸ļ": 6562,
      "Ġtenia": 6563,
      "ç»§": 6564,
      "ĠJune": 6565,
      "Ġnoise": 6566,
      "PO": 6567,
      "Ð¾Ð½Ð°": 6568,
      "Why": 6569,
      "ĠTV": 6570,
      "ords": 6571,
      "Ġmaterials": 6572,
      "Source": 6573,
      "ober": 6574,
      "widet": 6575,
      "Ãºb": 6576,
      "Ġenem": 6577,
      "ĠEvery": 6578,
      "ERT": 6579,
      "Ġsales": 6580,
      "éģĩ": 6581,
      "Ġreve": 6582,
      "Ġbud": 6583,
      "ĠAir": 6584,
      "Ġdigital": 6585,
      "Ġsweet": 6586,
      "Ġconvers": 6587,
      "Ġweak": 6588,
      "ĠThus": 6589,
      "Ġscen": 6590,
      "æķ°æį®": 6591,
      "Ġinvolved": 6592,
      "SD": 6593,
      "Ġplayers": 6594,
      "Ġmiles": 6595,
      "urrent": 6596,
      "ĠArt": 6597,
      "ĠSept": 6598,
      "Ġfloor": 6599,
      "ĠRuss": 6600,
      "ĠGovern": 6601,
      "Ġprograms": 6602,
      "cks": 6603,
      "ims": 6604,
      "Ġselection": 6605,
      "Ġpresented": 6606,
      "Ġrev": 6607,
      "inte": 6608,
      "ĠÐºÑĢÐ°": 6609,
      "clusion": 6610,
      "Ġwel": 6611,
      "Ġsmaller": 6612,
      "Ġcandid": 6613,
      "ums": 6614,
      "Ġerrors": 6615,
      "hold": 6616,
      "Ġotherwise": 6617,
      "ĠDay": 6618,
      "ÐĺÐ·": 6619,
      "Stream": 6620,
      "prime": 6621,
      "ln": 6622,
      "çĶļ": 6623,
      "Str": 6624,
      "Ġmanera": 6625,
      "é£ŀ": 6626,
      "Ġstood": 6627,
      "swe": 6628,
      "Ġhappened": 6629,
      "free": 6630,
      "Ġbul": 6631,
      "Ġvirtual": 6632,
      "Ġobjects": 6633,
      "fill": 6634,
      "Image": 6635,
      "}-": 6636,
      "Well": 6637,
      "inding": 6638,
      "night": 6639,
      "inger": 6640,
      "Ġnegative": 6641,
      "ä¸Ģèµ·": 6642,
      "Ġmaybe": 6643,
      "Ġteac": 6644,
      "they": 6645,
      "iation": 6646,
      "Ġstock": 6647,
      "Ġnorm": 6648,
      "ĠCour": 6649,
      "åĲ«": 6650,
      ")]": 6651,
      "ruit": 6652,
      "Ġprove": 6653,
      "empor": 6654,
      "çľĭåĪ°": 6655,
      "bon": 6656,
      "HER": 6657,
      "ĠMa": 6658,
      "Ġexternal": 6659,
      "ĠInter": 6660,
      ".--": 6661,
      "ä»ĺ": 6662,
      "thm": 6663,
      "ĠÃł": 6664,
      "çī¹åĪ«": 6665,
      "Ġprimary": 6666,
      "olf": 6667,
      "Ġearn": 6668,
      "Ġproduce": 6669,
      "Ġsession": 6670,
      "IF": 6671,
      "Ġclub": 6672,
      "ĠRo": 6673,
      "Ġtransport": 6674,
      "Ġcommit": 6675,
      "åħŃ": 6676,
      "usiness": 6677,
      "åĵª": 6678,
      "elled": 6679,
      "éĨ": 6680,
      "åģ¥åº·": 6681,
      "ÐĶ": 6682,
      "'.": 6683,
      "çİ¯å¢ĥ": 6684,
      "umin": 6685,
      "Ġquan": 6686,
      "Ġplans": 6687,
      "Ġhelps": 6688,
      "iler": 6689,
      "Ġnombre": 6690,
      "GB": 6691,
      "itute": 6692,
      "Ġwat": 6693,
      "ĠAugust": 6694,
      "Ġdedic": 6695,
      "ĠComm": 6696,
      "ĠĠ|": 6697,
      "widetilde": 6698,
      "Ġglass": 6699,
      "æĢİä¹Ī": 6700,
      "Ġintent": 6701,
      "Ġappreci": 6702,
      "Ġreported": 6703,
      "åĤ": 6704,
      "nonumber": 6705,
      "Ġplayer": 6706,
      "target": 6707,
      "scale": 6708,
      "å¹´çļĦ": 6709,
      "ĠFeb": 6710,
      "Ġexcellent": 6711,
      "Ġstudent": 6712,
      "Ġalgorithm": 6713,
      "system": 6714,
      "Ġunderstanding": 6715,
      "æĭĽ": 6716,
      "Ġexplain": 6717,
      "Ġpero": 6718,
      "Ġhistor": 6719,
      "ĠCO": 6720,
      "Ġherself": 6721,
      "éĴŁ": 6722,
      "These": 6723,
      "Ġrights": 6724,
      "Group": 6725,
      "ĠTra": 6726,
      "ĠMat": 6727,
      "Ġnational": 6728,
      "Ġaspect": 6729,
      "Ġreflect": 6730,
      "Pol": 6731,
      "options": 6732,
      "Ġincreasing": 6733,
      "aign": 6734,
      "otion": 6735,
      "icrosoft": 6736,
      "Ġaware": 6737,
      "Ġfab": 6738,
      "claim": 6739,
      "Ġwasn": 6740,
      "arp": 6741,
      "æĿ¥è¯´": 6742,
      "ran": 6743,
      "ĠMich": 6744,
      "é¢Ŀ": 6745,
      "Ġplaced": 6746,
      "after": 6747,
      ";&": 6748,
      "ä»ĸçļĦ": 6749,
      "\"../": 6750,
      "Ġheavy": 6751,
      "åĿĹ": 6752,
      "Ġprot": 6753,
      "Ġbasic": 6754,
      "Ġdues": 6755,
      "Ġseves": 6756,
      "Ġprojects": 6757,
      "Ġargument": 6758,
      "éķĩ": 6759,
      "Ġult": 6760,
      "ç½Ĺ": 6761,
      "Ġsett": 6762,
      "Ġwild": 6763,
      "Ġsufficient": 6764,
      "ĠPresident": 6765,
      "Ġdut": 6766,
      "ĠPaul": 6767,
      "Ġpages": 6768,
      "ĠÐ¢Ð¾": 6769,
      "ĠJes": 6770,
      "ĠTom": 6771,
      "çĹĽ": 6772,
      "Ġdoc": 6773,
      "Ġshape": 6774,
      "Us": 6775,
      "Ġinterpret": 6776,
      "Acc": 6777,
      "Ġstorage": 6778,
      "never": 6779,
      "ecut": 6780,
      "Ġpels": 6781,
      "Ġchalleng": 6782,
      "Ð²ÐµÑĢ": 6783,
      "Ġevening": 6784,
      "Ġcloud": 6785,
      "è§īå¾Ĺ": 6786,
      "CL": 6787,
      "Ġhuge": 6788,
      "Ġcomments": 6789,
      "Ġdaily": 6790,
      "Ġnav": 6791,
      "åī§": 6792,
      "Ġrock": 6793,
      "alla": 6794,
      "ç²ī": 6795,
      "Ġsmooth": 6796,
      "Ġterminal": 6797,
      "ĠMont": 6798,
      "åħ¶ä¸Ń": 6799,
      "Ġsale": 6800,
      "ç¬¬äºĮ": 6801,
      "ervices": 6802,
      "Ġlack": 6803,
      "Ġtalking": 6804,
      "å¥Ĺ": 6805,
      "ĠEven": 6806,
      "ĠDirect": 6807,
      "osen": 6808,
      "XX": 6809,
      "Ġforms": 6810,
      "netic": 6811,
      "å·¦": 6812,
      "Ġdise": 6813,
      "Ġcreating": 6814,
      "Ġbuff": 6815,
      "Ġadministr": 6816,
      "eds": 6817,
      "ifest": 6818,
      "Ġtrain": 6819,
      "Ġ<<": 6820,
      "Ð°ÑĢÐ¸": 6821,
      "ĠtÃ©": 6822,
      "Ġresource": 6823,
      "ounced": 6824,
      "ĠMal": 6825,
      "certain": 6826,
      "ĠJap": 6827,
      "èī¯": 6828,
      "Ġfaith": 6829,
      "åĵģçīĮ": 6830,
      "ĉpublic": 6831,
      "stream": 6832,
      "å¤«": 6833,
      "Ġchurch": 6834,
      "ĠÑİ": 6835,
      "ĠSection": 6836,
      "\\[": 6837,
      "Ġunless": 6838,
      "Ġguard": 6839,
      "ÐµÐ»": 6840,
      "---": 6841,
      "æŃ¦": 6842,
      "å·´": 6843,
      "nica": 6844,
      "lor": 6845,
      "km": 6846,
      "Ġpresident": 6847,
      "erved": 6848,
      "Ġmotor": 6849,
      "rial": 6850,
      "Ġwhatever": 6851,
      "Ġmeas": 6852,
      "ĠDev": 6853,
      "Ġappropriate": 6854,
      "é¼": 6855,
      "Ġkill": 6856,
      "æł¹æį®": 6857,
      "SON": 6858,
      "PA": 6859,
      "IO": 6860,
      "ÑĢÐµÐ½": 6861,
      "ĠSir": 6862,
      "åį«": 6863,
      "acters": 6864,
      "Ġhy": 6865,
      "Ġparents": 6866,
      "è¿Ļæĺ¯": 6867,
      "fa": 6868,
      "åħ«": 6869,
      "é¡»": 6870,
      "åı³": 6871,
      "][": 6872,
      "Ġbehavior": 6873,
      "Ġfurn": 6874,
      "uid": 6875,
      "edia": 6876,
      "pg": 6877,
      "Ġej": 6878,
      "Ġsupported": 6879,
      "append": 6880,
      "Ġsources": 6881,
      "Ġreduce": 6882,
      "Ġthank": 6883,
      "Ġrap": 6884,
      "æĪĳçļĦ": 6885,
      "aren": 6886,
      "Ġwave": 6887,
      "aud": 6888,
      "anÃ§a": 6889,
      "Ġreached": 6890,
      "tex": 6891,
      "ĠRef": 6892,
      "Ġdemonstr": 6893,
      "Ġbelong": 6894,
      "ĠInc": 6895,
      "Ge": 6896,
      "Ġstri": 6897,
      "ĠJack": 6898,
      "Ġopened": 6899,
      "IST": 6900,
      "Ãłria": 6901,
      "Any": 6902,
      "tabular": 6903,
      "ĠJuly": 6904,
      "Ġsequence": 6905,
      ")-": 6906,
      "Ġcore": 6907,
      "Ġdeveloped": 6908,
      "Ġencour": 6909,
      "Ġupper": 6910,
      "Ġremoved": 6911,
      "èĥĮ": 6912,
      "clos": 6913,
      "æ¶Īè´¹": 6914,
      "ĠÑĤÐ°": 6915,
      "Ġyield": 6916,
      "Ġactivities": 6917,
      "ä¸ĢèĪ¬": 6918,
      "iance": 6919,
      "ĠÐ¸Ð¼Ð°": 6920,
      "Ġbool": 6921,
      "ĠTable": 6922,
      "Ġskills": 6923,
      "Ġsafety": 6924,
      "Ġfolder": 6925,
      "apers": 6926,
      "Ġsell": 6927,
      "ä»ĭ": 6928,
      "eless": 6929,
      "Ġactivity": 6930,
      "ĠTime": 6931,
      "json": 6932,
      "çĽ¸åħ³": 6933,
      "Builder": 6934,
      "åģĩ": 6935,
      "Rem": 6936,
      "ĠCounty": 6937,
      "Ġmoved": 6938,
      "Ġcircum": 6939,
      "éĵģ": 6940,
      "ĠKe": 6941,
      "Ġrelative": 6942,
      "Ġpeace": 6943,
      "Ġpresence": 6944,
      "ĠHist": 6945,
      "prop": 6946,
      "strong": 6947,
      "Ġorigin": 6948,
      "Ġtrav": 6949,
      "īs": 6950,
      "ospital": 6951,
      "Pos": 6952,
      "æ±½è½¦": 6953,
      "çĸ«": 6954,
      "æħ¢": 6955,
      "Ġdecor": 6956,
      "æľĢåĲİ": 6957,
      "Ġsuccessful": 6958,
      "ĠAfr": 6959,
      "process": 6960,
      "Box": 6961,
      "root": 6962,
      "Ġindu": 6963,
      "Ġgenerated": 6964,
      "Status": 6965,
      "Ġhusband": 6966,
      "Ġdones": 6967,
      "Âłanys": 6968,
      "ART": 6969,
      "Me": 6970,
      "force": 6971,
      "Ġcoordin": 6972,
      "Ġamazing": 6973,
      "Ġpaid": 6974,
      "Ġtour": 6975,
      "ĠTw": 6976,
      "ĠLog": 6977,
      "Ġdie": 6978,
      "Ġprotected": 6979,
      "Ġdomain": 6980,
      "ä¹¡": 6981,
      "ĠOR": 6982,
      "~$": 6983,
      "ĠGreat": 6984,
      "Ġdetermine": 6985,
      "ears": 6986,
      "Ġcomen": 6987,
      "ä¸ĵä¸ļ": 6988,
      "Ġexamples": 6989,
      "ç©¿": 6990,
      "Ġdry": 6991,
      "Ġlegal": 6992,
      "Ġagree": 6993,
      "Ġnovel": 6994,
      "ĠAustral": 6995,
      "ä»·æł¼": 6996,
      "Ġmedical": 6997,
      "Desc": 6998,
      "defined": 6999,
      "ĠNote": 7000,
      "Ġpressure": 7001,
      "ä¹ħ": 7002,
      "berg": 7003,
      "possible": 7004,
      "ĠDel": 7005,
      "æĴŃ": 7006,
      "bel": 7007,
      "dl": 7008,
      "Ġhous": 7009,
      "rier": 7010,
      "there": 7011,
      "Ġinsurance": 7012,
      "Ġvert": 7013,
      "depend": 7014,
      "coming": 7015,
      "çºª": 7016,
      "Thanks": 7017,
      "alls": 7018,
      "Ġpublished": 7019,
      "åįĸ": 7020,
      "ography": 7021,
      "ĠService": 7022,
      "åºŃ": 7023,
      "Ġproceed": 7024,
      "Ġcosts": 7025,
      "ä¸´": 7026,
      "å¯Ĩ": 7027,
      "ä»Ĭå¤©": 7028,
      "YPE": 7029,
      "ĠSk": 7030,
      "å®¡": 7031,
      "UB": 7032,
      "vest": 7033,
      "Ġcountries": 7034,
      "ĠCr": 7035,
      "ĠBel": 7036,
      "Ġmargin": 7037,
      "Ġeffort": 7038,
      "Ġseparate": 7039,
      "Ġnord": 7040,
      "kg": 7041,
      "ç«ł": 7042,
      "Ġtrip": 7043,
      "Ġpray": 7044,
      "Ġcouldn": 7045,
      "Ġnamed": 7046,
      "Ġaquesta": 7047,
      "Ġwrote": 7048,
      "ala": 7049,
      "ĠFile": 7050,
      "ĠÃº": 7051,
      "Ġdamage": 7052,
      "Ġrank": 7053,
      "Ġguide": 7054,
      "ÑĢÑı": 7055,
      "xml": 7056,
      "Ġspot": 7057,
      "Ġproviding": 7058,
      "åĽłæŃ¤": 7059,
      "column": 7060,
      "Ð½Ñı": 7061,
      "burg": 7062,
      "Ð·Ð¾": 7063,
      "åıªæľī": 7064,
      "iber": 7065,
      "ĠOther": 7066,
      "Ġdirector": 7067,
      "ĠsegÃ¼": 7068,
      "ç«¯": 7069,
      "Ġpatients": 7070,
      "Ġhappens": 7071,
      "Ġcontra": 7072,
      "Ãłt": 7073,
      "Ġevidence": 7074,
      "äº§ä¸ļ": 7075,
      "æĸ¹æ³ķ": 7076,
      "æī¹": 7077,
      "ä¼¼": 7078,
      "æĶ¿åºľ": 7079,
      "Ġleaders": 7080,
      "Ġfavorite": 7081,
      "allel": 7082,
      "Ġfellow": 7083,
      "inet": 7084,
      "Ġdanger": 7085,
      "Ġpolitical": 7086,
      "Ġinternet": 7087,
      "Ġmissing": 7088,
      "Ġoperator": 7089,
      "Ã¡s": 7090,
      "igger": 7091,
      "ä½Ļ": 7092,
      "ivo": 7093,
      "ĠlÃŃ": 7094,
      "Ġcontinued": 7095,
      "è¡£": 7096,
      "Ġinsert": 7097,
      "Since": 7098,
      "gest": 7099,
      "ç¨³": 7100,
      "cat": 7101,
      "ĠBer": 7102,
      "å¥ĩ": 7103,
      "iol": 7104,
      "ĠBook": 7105,
      "Ġinstallation": 7106,
      "Ġbes": 7107,
      "äº®": 7108,
      "anging": 7109,
      "^+": 7110,
      "dr": 7111,
      "imin": 7112,
      "########": 7113,
      "Ð¿Ñĥ": 7114,
      "Check": 7115,
      "ded": 7116,
      "ÑĤÐ¾ÑĩÐ½Ð¸": 7117,
      "TP": 7118,
      "Ġmonitor": 7119,
      "Ġcounter": 7120,
      "ĠÐ¿ÑĢÐ°": 7121,
      "Ġspecified": 7122,
      "åĨħå®¹": 7123,
      "outer": 7124,
      "Ġvariables": 7125,
      "å¸ĮæľĽ": 7126,
      "DD": 7127,
      "habitants": 7128,
      "Ġseeing": 7129,
      "Ġdetermined": 7130,
      "Ġpopulation": 7131,
      "å®£": 7132,
      "jar": 7133,
      "ĠDavid": 7134,
      "å¹³åı°": 7135,
      "Ġloved": 7136,
      "Ġpanel": 7137,
      "Ġspent": 7138,
      "Ġdem": 7139,
      "æī§": 7140,
      "ĠSeg": 7141,
      "Off": 7142,
      "Ġempty": 7143,
      "ovember": 7144,
      "Ġpark": 7145,
      "ĠHealth": 7146,
      "Ġthick": 7147,
      "Ġobvious": 7148,
      "æĭį": 7149,
      "Ġcentre": 7150,
      "asks": 7151,
      "ĠMo": 7152,
      "Ġcontr": 7153,
      "è¿ĩç¨ĭ": 7154,
      "ĠOh": 7155,
      "ĠCast": 7156,
      "Ãºblic": 7157,
      "å®ŀçİ°": 7158,
      ">Ġ<": 7159,
      "EM": 7160,
      "ĠHome": 7161,
      "stract": 7162,
      "Ġmur": 7163,
      "uest": 7164,
      "ĠFe": 7165,
      "ĠSpec": 7166,
      "phone": 7167,
      "CA": 7168,
      "ÑĨÐµ": 7169,
      "ector": 7170,
      "Ġharm": 7171,
      "Ġconsequ": 7172,
      "ĠConst": 7173,
      "will": 7174,
      "args": 7175,
      "åŃ¦æł¡": 7176,
      "cember": 7177,
      "othes": 7178,
      "ensor": 7179,
      "Ġburn": 7180,
      "Ġideal": 7181,
      "éŃ": 7182,
      "IA": 7183,
      "Ġelectron": 7184,
      "ĠÐ¼Ð¸": 7185,
      "åį°": 7186,
      "éº": 7187,
      "hentic": 7188,
      "').": 7189,
      "Base": 7190,
      "Ġdescribe": 7191,
      "åĪĺ": 7192,
      "font": 7193,
      "Hist": 7194,
      "appe": 7195,
      "ĠMost": 7196,
      "ĠÑĦÐ¾Ð½": 7197,
      "Ðĵ": 7198,
      "Ġsigu": 7199,
      "idents": 7200,
      "Ġsymbol": 7201,
      "Ġmeant": 7202,
      "åĮĹäº¬": 7203,
      "æ³¢": 7204,
      "dy": 7205,
      "ĠBritish": 7206,
      "Util": 7207,
      "GL": 7208,
      "âĶĢ": 7209,
      "Ġchannel": 7210,
      "åĪ»": 7211,
      "fast": 7212,
      "Ġmine": 7213,
      "Ġtables": 7214,
      "ĠIP": 7215,
      "Ġpurchase": 7216,
      "åħ³ç³»": 7217,
      "Ġlearned": 7218,
      "çĶļèĩ³": 7219,
      "ĠÐ¿ÑĬÑĢ": 7220,
      "çĶŁäº§": 7221,
      "ãģ": 7222,
      "Ġadjust": 7223,
      "cell": 7224,
      "æ¯Ĵ": 7225,
      "Ġplayed": 7226,
      "Ġconserv": 7227,
      "ĠÐ¸Ð½": 7228,
      "ç»Ħç»ĩ": 7229,
      "Em": 7230,
      "Ġadding": 7231,
      "Ð¾Ð±": 7232,
      "ani": 7233,
      "Ġbath": 7234,
      "Ġtoward": 7235,
      "endo": 7236,
      "cit": 7237,
      "Ġcritical": 7238,
      "Ġearlier": 7239,
      "ĠCalif": 7240,
      "çķ¥": 7241,
      ":\\": 7242,
      "ĠFrance": 7243,
      "å¥ĸ": 7244,
      "Post": 7245,
      "tra": 7246,
      "riage": 7247,
      "Ġboolean": 7248,
      "module": 7249,
      "icol": 7250,
      "cr": 7251,
      "Ġcant": 7252,
      "mem": 7253,
      "ä¹İ": 7254,
      "Ġsen": 7255,
      "Create": 7256,
      "ĠSen": 7257,
      "should": 7258,
      "æīĭæľº": 7259,
      "Ġreasons": 7260,
      "Content": 7261,
      "Ġthread": 7262,
      "Ġquiet": 7263,
      "ĠFree": 7264,
      "iders": 7265,
      "ĠHel": 7266,
      "Ð²Ð¸Ñı": 7267,
      "Ġgar": 7268,
      "unya": 7269,
      "aments": 7270,
      "Ġrequirements": 7271,
      "Last": 7272,
      "ĠUs": 7273,
      "mid": 7274,
      "ĠVer": 7275,
      "Ġtrade": 7276,
      "Ġgra": 7277,
      "}]": 7278,
      "Ġdepends": 7279,
      "æĿ¾": 7280,
      "ĠHT": 7281,
      "Ġfell": 7282,
      "éĺ¿": 7283,
      "Ġbra": 7284,
      "Ġran": 7285,
      "Ġvill": 7286,
      "xa": 7287,
      "Ġparticularly": 7288,
      "fortun": 7289,
      "ç»ľ": 7290,
      "anÃ§": 7291,
      "Ð¢": 7292,
      "Ð²Ð°Ð½ÐµÑĤÐ¾": 7293,
      "AV": 7294,
      "rome": 7295,
      "Ġwonderful": 7296,
      "ĠJanuary": 7297,
      "Ġeasier": 7298,
      "Ġadvantage": 7299,
      "ae": 7300,
      "header": 7301,
      "ĠÐ±Ð¸": 7302,
      "Å¡": 7303,
      "show": 7304,
      "zeta": 7305,
      "Ġdecre": 7306,
      "ictionary": 7307,
      "rypt": 7308,
      "ĠJose": 7309,
      "ĠUse": 7310,
      "å½ķ": 7311,
      "func": 7312,
      "Ġspread": 7313,
      "æ¥¼": 7314,
      "Ġkitchen": 7315,
      "Point": 7316,
      "ĠUK": 7317,
      "urity": 7318,
      "Ġinstant": 7319,
      "Ġlatter": 7320,
      "sembly": 7321,
      "Ġspin": 7322,
      "river": 7323,
      "jav": 7324,
      "Ġincreased": 7325,
      "ĠLaw": 7326,
      "Ġsites": 7327,
      "inder": 7328,
      "ercial": 7329,
      "\"]": 7330,
      "åĲĹ": 7331,
      "namespace": 7332,
      "ç¬ĳ": 7333,
      "Ġdomin": 7334,
      "Ġmagn": 7335,
      "Ġsurround": 7336,
      "when": 7337,
      "ĠFace": 7338,
      "äºĨè§£": 7339,
      "Ġcareer": 7340,
      "Ġproduced": 7341,
      "ude": 7342,
      "star": 7343,
      "*/": 7344,
      "Ġda": 7345,
      "Ð·Ðµ": 7346,
      "Ġtick": 7347,
      "åª": 7348,
      "èĭ¦": 7349,
      "CP": 7350,
      "Ġtempl": 7351,
      "Ġelectric": 7352,
      "å®¹æĺĵ": 7353,
      "Go": 7354,
      "Arg": 7355,
      "Ġrich": 7356,
      "èĩªçĦ¶": 7357,
      "Ġmobile": 7358,
      "ancing": 7359,
      "vari": 7360,
      "Ġwouldn": 7361,
      "ĠCong": 7362,
      "ç»ĥ": 7363,
      "src": 7364,
      "ĠCheck": 7365,
      "Ġshowed": 7366,
      "åįł": 7367,
      "åĮ»éĻ¢": 7368,
      "Ġtorn": 7369,
      "ÑģÐºÐ¸ÑĤÐµ": 7370,
      "Ġdrink": 7371,
      "Ġfinished": 7372,
      "ensional": 7373,
      "ĠMil": 7374,
      "Ġflat": 7375,
      "adata": 7376,
      "ÑĥÐ»": 7377,
      "Ġren": 7378,
      "Ġcivil": 7379,
      "idad": 7380,
      "ĠÑĩ": 7381,
      "ederal": 7382,
      "ĠDem": 7383,
      "Ġ(*": 7384,
      "ĠAssoci": 7385,
      "ĠWell": 7386,
      "ĠTheorem": 7387,
      "acement": 7388,
      "zen": 7389,
      "ÑĤÐ¾ÑĩÐ½Ð¸ÑĨÐ¸": 7390,
      "perties": 7391,
      "Don": 7392,
      "cy": 7393,
      "Ġbirth": 7394,
      "Ste": 7395,
      "Spec": 7396,
      "command": 7397,
      "éĻĪ": 7398,
      "ÑĤÑĢÐ¾": 7399,
      "Ġ==Ġ": 7400,
      "Ġhaven": 7401,
      "ä¸įä»ħ": 7402,
      "Ġestud": 7403,
      "ä¸°": 7404,
      "Ġadvice": 7405,
      "edge": 7406,
      "Rep": 7407,
      "Ġped": 7408,
      "çĶ±äºİ": 7409,
      "\\]": 7410,
      "æ´Ĺ": 7411,
      "ĠMount": 7412,
      "Ġpictures": 7413,
      "ĠMary": 7414,
      "Sim": 7415,
      "Ġpaint": 7416,
      "è¿Ļæł·çļĦ": 7417,
      "Ġdear": 7418,
      "Ġpros": 7419,
      "Ġmut": 7420,
      "æ³¨æĦı": 7421,
      "ucle": 7422,
      "ĠSam": 7423,
      "enu": 7424,
      "bottom": 7425,
      "Ġdaughter": 7426,
      "Are": 7427,
      "close": 7428,
      "Ġpun": 7429,
      "status": 7430,
      "Ġrespond": 7431,
      "ĠFROM": 7432,
      "Ġholds": 7433,
      "ributions": 7434,
      "Ġpool": 7435,
      "ä½ľçĶ¨": 7436,
      "Ġequipment": 7437,
      "è½½": 7438,
      "åĽ½éĻħ": 7439,
      "Ġshowing": 7440,
      "ATION": 7441,
      "ĠMet": 7442,
      "ĠEq": 7443,
      "ila": 7444,
      "Ġcharacters": 7445,
      "èĮ¶": 7446,
      "èĹ": 7447,
      "ĠChurch": 7448,
      "ĠEX": 7449,
      "åŁºæľ¬": 7450,
      "Head": 7451,
      "Ġcarried": 7452,
      "ĠUnits": 7453,
      "REE": 7454,
      "aria": 7455,
      "Ġer": 7456,
      "ĠTor": 7457,
      "{}": 7458,
      "Default": 7459,
      "ads": 7460,
      "BC": 7461,
      "layout": 7462,
      "Ġbow": 7463,
      "Ġbenefits": 7464,
      "skip": 7465,
      "ourney": 7466,
      "Ġknows": 7467,
      "Ġpin": 7468,
      "oles": 7469,
      "Ġshot": 7470,
      ">Ġ": 7471,
      "Ġexception": 7472,
      "fit": 7473,
      "Ġforg": 7474,
      "Fe": 7475,
      "Ġfan": 7476,
      "Command": 7477,
      "ĠThanks": 7478,
      "Ġgrowing": 7479,
      "oca": 7480,
      "ĠType": 7481,
      "æįŁ": 7482,
      "Ġshared": 7483,
      "åľ°æĸ¹": 7484,
      "Ġopinion": 7485,
      "eries": 7486,
      "Ġwid": 7487,
      "ĠÐļÐ¾": 7488,
      "ribe": 7489,
      "Ġund": 7490,
      "Ġbroken": 7491,
      "Ġdatos": 7492,
      "swered": 7493,
      "é¡º": 7494,
      "Ġhighest": 7495,
      "ĠIndia": 7496,
      "Ġfarm": 7497,
      "Ġemerg": 7498,
      "ĠStreet": 7499,
      "âĶĤ": 7500,
      "Ġconj": 7501,
      "Ġrace": 7502,
      "Ġphotos": 7503,
      "è¿ĻéĩĮ": 7504,
      "Ġiter": 7505,
      "Ġlibrary": 7506,
      "SELECT": 7507,
      "Ġdefin": 7508,
      "finished": 7509,
      "________": 7510,
      "ĠIII": 7511,
      "aming": 7512,
      "Ġrates": 7513,
      "Ġwaiting": 7514,
      "å³": 7515,
      "Ġruns": 7516,
      "Fl": 7517,
      "Some": 7518,
      "reme": 7519,
      "ĠJames": 7520,
      "omin": 7521,
      "Ġefficient": 7522,
      "Ġrent": 7523,
      "Ġtu": 7524,
      "Ġresolution": 7525,
      "Ġstars": 7526,
      "ologia": 7527,
      "Ġfinding": 7528,
      "itzar": 7529,
      "Ġmac": 7530,
      "å¦Ĥä½ķ": 7531,
      "Component": 7532,
      "Ġverb": 7533,
      "ä¸Ģæ¬¡": 7534,
      "ĠRich": 7535,
      "Ġstudies": 7536,
      "ste": 7537,
      "ĠTherefore": 7538,
      "adow": 7539,
      "ĠGreen": 7540,
      "win": 7541,
      "æĹı": 7542,
      "Ġoffered": 7543,
      "å¯Ł": 7544,
      "Ġremains": 7545,
      "Ġremark": 7546,
      "Ġminimum": 7547,
      "ĠÑĤÐ¾Ð²Ð°": 7548,
      "Ġdru": 7549,
      "who": 7550,
      "abilities": 7551,
      "Instance": 7552,
      "rÃł": 7553,
      "Ġmir": 7554,
      "åıªæĺ¯": 7555,
      "itu": 7556,
      "AND": 7557,
      "åĬ³": 7558,
      "ĠÎ": 7559,
      "Ġocup": 7560,
      "è¿½": 7561,
      "ÐºÐ°Ð½": 7562,
      "Ġmarketing": 7563,
      "Ġarrib": 7564,
      "ĠSeptember": 7565,
      "Ġillustr": 7566,
      "ĠGood": 7567,
      "åī¯": 7568,
      "rl": 7569,
      "Ġhorse": 7570,
      "tee": 7571,
      "ä¸įæĸŃ": 7572,
      "Ġwants": 7573,
      "alg": 7574,
      "Ġshut": 7575,
      "fess": 7576,
      "KE": 7577,
      "private": 7578,
      "Ġreturns": 7579,
      "ĠOctober": 7580,
      "Token": 7581,
      "æĽ´å¤ļ": 7582,
      "Ġta": 7583,
      "(-": 7584,
      "çļĦäºĭ": 7585,
      "Ġfuncion": 7586,
      "Ġmedic": 7587,
      "Ġhacer": 7588,
      "ĠYes": 7589,
      "çīĽ": 7590,
      "Ġanswered": 7591,
      "Sp": 7592,
      "Ġfinite": 7593,
      "æĵį": 7594,
      "Ġprepar": 7595,
      "di": 7596,
      "Ġspend": 7597,
      ")}\\": 7598,
      "ashington": 7599,
      "ĠFigure": 7600,
      "èĨ": 7601,
      "Ġprobability": 7602,
      "ownload": 7603,
      "Ġdoctor": 7604,
      "Gener": 7605,
      "ĠPre": 7606,
      "ĠPet": 7607,
      "Ġeste": 7608,
      "ĠÐºÐ¾Ð½": 7609,
      "ruary": 7610,
      "bro": 7611,
      "æ¶¨": 7612,
      "before": 7613,
      "Oper": 7614,
      "Ġtag": 7615,
      "Ġequivalent": 7616,
      "Ġvs": 7617,
      "Ġpackages": 7618,
      "Your": 7619,
      "Ġinternational": 7620,
      "Ġusual": 7621,
      "Open": 7622,
      "||": 7623,
      "duc": 7624,
      "Ġsymmet": 7625,
      "Ġax": 7626,
      "More": 7627,
      "æĭ¥": 7628,
      "ÃŃc": 7629,
      "ĠLinux": 7630,
      "Ġstress": 7631,
      "icious": 7632,
      "Ġcaused": 7633,
      "å¤ľ": 7634,
      "ĠObject": 7635,
      "lands": 7636,
      "element": 7637,
      "ÐĺÐ·ÑĤÐ¾ÑĩÐ½Ð¸ÑĨÐ¸": 7638,
      "ç¨İ": 7639,
      "Ġtrees": 7640,
      "Ð¹ÑĤÐ¾": 7641,
      "Ġhabitatges": 7642,
      "èĦĳ": 7643,
      "Ġadm": 7644,
      "Am": 7645,
      "ĠSu": 7646,
      "Ġsounds": 7647,
      "sg": 7648,
      "Bl": 7649,
      "Ġtract": 7650,
      "ĠGal": 7651,
      "ror": 7652,
      "Ġdied": 7653,
      "Phone": 7654,
      "åŁ¹": 7655,
      "ĠCatalunya": 7656,
      "Ġdefinitely": 7657,
      "Ġforget": 7658,
      "è¿Ľåħ¥": 7659,
      "Ġexhib": 7660,
      "front": 7661,
      "control": 7662,
      "Ġpure": 7663,
      "ston": 7664,
      "Ġseconds": 7665,
      "bles": 7666,
      "iente": 7667,
      "ä¸½": 7668,
      "æľ¨": 7669,
      "Ġcovered": 7670,
      "æ¯Ľ": 7671,
      "Ġsimpl": 7672,
      "While": 7673,
      "Ġstation": 7674,
      "number": 7675,
      "doc": 7676,
      "Action": 7677,
      "Ġstrugg": 7678,
      "rate": 7679,
      "Ġindividuals": 7680,
      "Ġappeared": 7681,
      "Ġexpand": 7682,
      "term": 7683,
      "Ġadapt": 7684,
      "Ġconstraint": 7685,
      "Ġguarant": 7686,
      "Ġthr": 7687,
      "Ġrelevant": 7688,
      "Ġglad": 7689,
      "PR": 7690,
      "ĠInternational": 7691,
      "é¢ĳ": 7692,
      "æĦŁè§ī": 7693,
      "æ¯ķ": 7694,
      "make": 7695,
      "{{\\": 7696,
      "format": 7697,
      "exec": 7698,
      "Ġconven": 7699,
      "Ġtransl": 7700,
      "Ġenh": 7701,
      "Ġurl": 7702,
      "¤Ĳ": 7703,
      "ULT": 7704,
      "aptop": 7705,
      "è½®": 7706,
      "some": 7707,
      "Ġsight": 7708,
      "çĹĩ": 7709,
      "ĠSur": 7710,
      "Ġoverall": 7711,
      "emp": 7712,
      "ç¼º": 7713,
      "Ġcart": 7714,
      "Ġmanager": 7715,
      "ĠChristian": 7716,
      "ĠÐ²Ð¾Ð¹": 7717,
      "Ġexpert": 7718,
      "Ġrows": 7719,
      "éĽ¨": 7720,
      "nÃŃ": 7721,
      "textwidth": 7722,
      "han": 7723,
      "è¾Ĩ": 7724,
      "Ġanc": 7725,
      "Ð·Ð²Ð°": 7726,
      "PT": 7727,
      "éĿ©": 7728,
      "Min": 7729,
      "Ġborn": 7730,
      "terior": 7731,
      "Ġlloc": 7732,
      "Ġubuntu": 7733,
      "èĵ": 7734,
      "Ġveloc": 7735,
      "else": 7736,
      "common": 7737,
      "ometry": 7738,
      "Ġstrategy": 7739,
      "ĠFound": 7740,
      "ushed": 7741,
      "Back": 7742,
      "ĠForm": 7743,
      "ĠÐºÑĬÐ¼": 7744,
      "ç¯": 7745,
      "Hel": 7746,
      "ĠNone": 7747,
      "Ġsquare": 7748,
      "heet": 7749,
      "gin": 7750,
      "Ġmotion": 7751,
      "aturday": 7752,
      "vo": 7753,
      "DA": 7754,
      "Ġthanks": 7755,
      "gebra": 7756,
      "\\\"": 7757,
      "Ġtab": 7758,
      "çĦ¶åĲİ": 7759,
      "Sty": 7760,
      "UI": 7761,
      "apa": 7762,
      "Ġautomatically": 7763,
      "mt": 7764,
      "sche": 7765,
      "$^": 7766,
      "Ġye": 7767,
      "Ġcit": 7768,
      "Ġlaugh": 7769,
      "Ġcrow": 7770,
      "ÑĪÐ°": 7771,
      "crete": 7772,
      "Ġclearly": 7773,
      "poses": 7774,
      "Ġluck": 7775,
      "del": 7776,
      "Handler": 7777,
      "Ġstick": 7778,
      "ä»¤": 7779,
      "Ġoperations": 7780,
      "Ġpert": 7781,
      "Ġoccup": 7782,
      "Ġenable": 7783,
      "åĬŁèĥ½": 7784,
      "åŃĺåľ¨": 7785,
      "ascript": 7786,
      "ellig": 7787,
      "estern": 7788,
      "Ġrelation": 7789,
      "çĽ´æİ¥": 7790,
      "Ġopening": 7791,
      "è´µ": 7792,
      "é±": 7793,
      "æĪĲåĬŁ": 7794,
      "ĉĉĉĉĉĉĉĉ": 7795,
      "ĠÐºÐ¾Ð¸ÑĤÐ¾": 7796,
      "Ġcampaign": 7797,
      "èĤ¤": 7798,
      "inf": 7799,
      "èĥľ": 7800,
      "ĠÐŁÑĢÐµÐ·": 7801,
      "Ġproperly": 7802,
      "}_\\": 7803,
      "Ġsac": 7804,
      "ĠcÃ³": 7805,
      "Ġdu": 7806,
      "ĠGroup": 7807,
      "èĪª": 7808,
      "ĠĠĠĠĠĠĠĠĠĠĠĠĠĠĠĠĠĠĠĠĠĠĠĠĠĠĠĠĠĠĠ": 7809,
      "SI": 7810,
      "Ġadvance": 7811,
      "Ġarchitect": 7812,
      "âķ": 7813,
      "enses": 7814,
      "Ġextract": 7815,
      "Pre": 7816,
      "å½©": 7817,
      "split": 7818,
      "update": 7819,
      "èİ·å¾Ĺ": 7820,
      "ounce": 7821,
      "DC": 7822,
      "ĠChina": 7823,
      "åĩĢ": 7824,
      "åħ¨åĽ½": 7825,
      "ĠLou": 7826,
      "Load": 7827,
      "iors": 7828,
      "icles": 7829,
      "Ã¨t": 7830,
      "edding": 7831,
      "engo": 7832,
      "ĠMem": 7833,
      "Link": 7834,
      "izations": 7835,
      "ĠPlay": 7836,
      "ĠQue": 7837,
      "Ġvent": 7838,
      "ĠÐ½Ð°Ð¹": 7839,
      ";\"": 7840,
      "Ġsoul": 7841,
      "ĠArm": 7842,
      "ĠDet": 7843,
      "Ġbenefit": 7844,
      "Ġloop": 7845,
      "Ð±Ð»Ð¸": 7846,
      "Ġdoll": 7847,
      "å°±ä¼ļ": 7848,
      "èº«ä½ĵ": 7849,
      "Ġattract": 7850,
      "åĽ°": 7851,
      "Ġfif": 7852,
      "posite": 7853,
      "Ġlinks": 7854,
      "èĢģå¸Ī": 7855,
      "iture": 7856,
      "vider": 7857,
      "Ġgrav": 7858,
      "rot": 7859,
      "ras": 7860,
      "ä¸Ģç§į": 7861,
      "åı«": 7862,
      "ĠFil": 7863,
      "Ġprofile": 7864,
      "Ġthou": 7865,
      "ä¸Ŀ": 7866,
      "Ġbird": 7867,
      "Ð´Ð½Ð¾": 7868,
      "allow": 7869,
      "ĠAM": 7870,
      "Ġspl": 7871,
      "é±¼": 7872,
      "Ġslightly": 7873,
      "ä¹Łä¸į": 7874,
      "ĠDec": 7875,
      "éĢĢ": 7876,
      "Cell": 7877,
      "Options": 7878,
      "Ġbytes": 7879,
      "ĠCollege": 7880,
      "ĠFin": 7881,
      "Ġrestrict": 7882,
      "Å¾": 7883,
      "ĠPM": 7884,
      "åħ·æľī": 7885,
      "Ġpush": 7886,
      "Ġfranc": 7887,
      "itzaciÃ³": 7888,
      "Ġsetup": 7889,
      "bb": 7890,
      "anted": 7891,
      "Ġnation": 7892,
      "åĢŁ": 7893,
      "ĠWhite": 7894,
      "ONT": 7895,
      "å¹¸": 7896,
      "Ð½Ð´": 7897,
      "utely": 7898,
      "ĠÐ¿Ð°": 7899,
      "ĠÐ²ÑĬÐ²": 7900,
      "ĠĠĠĠĠĠĠĠĠĠĠĠĠĠĠĠĠĠĠĠ": 7901,
      "ental": 7902,
      "ems": 7903,
      "ombre": 7904,
      "ä½Ľ": 7905,
      "ä¸ĥ": 7906,
      "ç§Ģ": 7907,
      "æĲŃ": 7908,
      "ĠReturn": 7909,
      "Ġcried": 7910,
      "Ã²g": 7911,
      "Please": 7912,
      "ĠEnt": 7913,
      "Ġorganization": 7914,
      "Ġperformed": 7915,
      "menu": 7916,
      "Ġdeliver": 7917,
      "éĿĻ": 7918,
      "Ġtransition": 7919,
      "ĠcomenÃ§": 7920,
      "orry": 7921,
      "ç§ĳæĬĢ": 7922,
      "Resource": 7923,
      "eder": 7924,
      "ĠEach": 7925,
      "Next": 7926,
      "property": 7927,
      "Null": 7928,
      "æĭ¬": 7929,
      "RL": 7930,
      "Ġarms": 7931,
      "Number": 7932,
      "ĠÐ¨": 7933,
      "ette": 7934,
      "âĤ": 7935,
      "/.": 7936,
      "ĠSunday": 7937,
      "Ġinfluence": 7938,
      "Ġicon": 7939,
      "èĭı": 7940,
      "ĠTechn": 7941,
      "ingly": 7942,
      "rael": 7943,
      "Ġleaving": 7944,
      "member": 7945,
      "anges": 7946,
      "ĠÐ²ÑĢÐµ": 7947,
      "acc": 7948,
      "Ġpattern": 7949,
      "asy": 7950,
      "Ġplanning": 7951,
      "ĠRobert": 7952,
      "ç¬Ķ": 7953,
      "è§Ħå®ļ": 7954,
      "ç»¿": 7955,
      "ether": 7956,
      "ĠÐĹÐ°": 7957,
      "ĠCompany": 7958,
      "bum": 7959,
      "æĶ»": 7960,
      "ĠDC": 7961,
      "ĠEstats": 7962,
      "ĠEast": 7963,
      "ĠNovember": 7964,
      "è¾ĵ": 7965,
      "ĠJer": 7966,
      "ä»¥ä¸Ĭ": 7967,
      "bound": 7968,
      "Ġvisual": 7969,
      "Ġseven": 7970,
      "Ġprices": 7971,
      "Ã¶": 7972,
      "vere": 7973,
      "Ġreleased": 7974,
      "lections": 7975,
      "ifi": 7976,
      "ĠÐ´Ð¸": 7977,
      "widehat": 7978,
      "åĿĲ": 7979,
      "Ġhotel": 7980,
      "reek": 7981,
      "ÑģÑĤÑĢÐ¾": 7982,
      "Det": 7983,
      "Page": 7984,
      "Ġsuc": 7985,
      "ĠDan": 7986,
      "Ġregist": 7987,
      "çº³": 7988,
      "åĪ¤": 7989,
      "ĠTH": 7990,
      "ĠDecember": 7991,
      "Ġupdated": 7992,
      "Ãłr": 7993,
      "ĠThom": 7994,
      "èĸ": 7995,
      "Ġring": 7996,
      "ĠLo": 7997,
      "Ġdetail": 7998,
      "Ġchanging": 7999,
      "ĠWhe": 8000,
      "æłĩåĩĨ": 8001,
      "diff": 8002,
      "ÑģÑĤÐ²Ð¾ÑĤÐ¾": 8003,
      "Ġassign": 8004,
      "ĠMill": 8005,
      "Ġextremely": 8006,
      "ä¸Ģä¸ĭ": 8007,
      "Ġappoint": 8008,
      "Ġcompleted": 8009,
      "Ġfrag": 8010,
      "Ġassess": 8011,
      "Ġsir": 8012,
      "ä»£è¡¨": 8013,
      "real": 8014,
      "ĠPrem": 8015,
      "ĠÐ»Ð¸": 8016,
      "ä¸¤ä¸ª": 8017,
      "ĠÐºÐ¾Ð¹ÑĤÐ¾": 8018,
      "SH": 8019,
      "ç§»": 8020,
      "ivery": 8021,
      "FT": 8022,
      "Ġtesting": 8023,
      "click": 8024,
      "é¤Ĳ": 8025,
      "å¼Ĥ": 8026,
      "åħ°": 8027,
      "æŃĮ": 8028,
      "Ġtant": 8029,
      "Listener": 8030,
      "Ġvalor": 8031,
      "Ã¨r": 8032,
      "Ð¿ÑĢÐ°": 8033,
      ";\\": 8034,
      "Ġjun": 8035,
      "Attribute": 8036,
      "ÑıÑĤ": 8037,
      "ĠÐ¸Ð»Ð¸": 8038,
      "Ġsmart": 8039,
      "Ġreli": 8040,
      "See": 8041,
      "çĨŁ": 8042,
      "Ġtemps": 8043,
      "ä»Ĭå¹´": 8044,
      "åįĪ": 8045,
      "Ġchief": 8046,
      "Ġdiferent": 8047,
      "æıĲé«ĺ": 8048,
      "clude": 8049,
      "cdots": 8050,
      "Ġonto": 8051,
      "åĨ²": 8052,
      "åĨ·": 8053,
      "Ġtraditional": 8054,
      "åįķä½į": 8055,
      "PRO": 8056,
      "Const": 8057,
      "Ġthoughts": 8058,
      "Ġprocesses": 8059,
      "ĉvar": 8060,
      "Char": 8061,
      "éĿł": 8062,
      "Ġpossess": 8063,
      "åİŁåĽł": 8064,
      "product": 8065,
      "Ġthy": 8066,
      "Click": 8067,
      "Ð¿ÑĢÐ¾": 8068,
      "è®Ń": 8069,
      "ructions": 8070,
      "Ġmo": 8071,
      "asant": 8072,
      "Ġextension": 8073,
      "ĠChristmas": 8074,
      "Ġ\"\"\"": 8075,
      "ÑģÑĤÑĢÐ°": 8076,
      "Ġphrase": 8077,
      "Ġphoto": 8078,
      "Ġregarding": 8079,
      "uce": 8080,
      "ĠOver": 8081,
      "mic": 8082,
      "Ġweather": 8083,
      "Ġcircumst": 8084,
      "Ġspring": 8085,
      "Ġ<Ġ": 8086,
      "were": 8087,
      "ĠPo": 8088,
      "etime": 8089,
      "ç½ĳç»ľ": 8090,
      "Ġoccasion": 8091,
      "ornia": 8092,
      "van": 8093,
      "æ°¸": 8094,
      "æ±ī": 8095,
      "Ġcorner": 8096,
      "ĠHen": 8097,
      "lemma": 8098,
      "Nav": 8099,
      "æĢ¥": 8100,
      "Ġaqu": 8101,
      "Ġquals": 8102,
      "Ġfactors": 8103,
      "Ð»Ð¾ÑĤÐ¾": 8104,
      "Ġolder": 8105,
      "Ġinstr": 8106,
      "Ġtruly": 8107,
      "ĠĠĠĠĠĠĠĠĠĠĠĠĠĠĠĠĠĠĠĠĠĠĠĠ<": 8108,
      "ç²¾ç¥ŀ": 8109,
      "Version": 8110,
      "their": 8111,
      "ÐºÑģ": 8112,
      "Ġcalls": 8113,
      "Ġleads": 8114,
      "INT": 8115,
      "meta": 8116,
      "Ġplus": 8117,
      "Ġnative": 8118,
      "ĠHot": 8119,
      "Ġgirls": 8120,
      "Ġextends": 8121,
      "Els": 8122,
      "Block": 8123,
      "PL": 8124,
      "Ġbaby": 8125,
      "ixer": 8126,
      "Ġsist": 8127,
      "Ġneut": 8128,
      "Ġscore": 8129,
      "project": 8130,
      "ameters": 8131,
      "ĠRel": 8132,
      "çģµ": 8133,
      "Ġnou": 8134,
      "Ġscene": 8135,
      "é©¾": 8136,
      "ãĢĲ": 8137,
      "Ag": 8138,
      "Ġintroduced": 8139,
      "volution": 8140,
      "Ġpowerful": 8141,
      "bour": 8142,
      "Ġestablished": 8143,
      "Ġvehicle": 8144,
      "Ġreplied": 8145,
      "Label": 8146,
      "ĠLED": 8147,
      "ker": 8148,
      "è¡Įä¸º": 8149,
      "èįī": 8150,
      "Ġriver": 8151,
      "Ġdelete": 8152,
      "Ġapart": 8153,
      "ÑģÑĬ": 8154,
      "Ġfilled": 8155,
      "friend": 8156,
      "å¢ŀåĬł": 8157,
      "Ġsand": 8158,
      "çĸĳ": 8159,
      "ashed": 8160,
      "omorph": 8161,
      "Ġpieces": 8162,
      "ãĢĳ": 8163,
      "output": 8164,
      "æıĲåįĩ": 8165,
      "Ġsecure": 8166,
      "ncy": 8167,
      "å®ĮæĪĲ": 8168,
      "Ġfamilies": 8169,
      "Ġlady": 8170,
      "Ġthreat": 8171,
      "Ġconeg": 8172,
      "Ġtrouble": 8173,
      "standing": 8174,
      "Ġfashion": 8175,
      "graph": 8176,
      "agger": 8177,
      "Ġ((": 8178,
      "True": 8179,
      "lis": 8180,
      "Ġcombination": 8181,
      "Ġusage": 8182,
      "ä¸ĢæŃ¥": 8183,
      "å·¥ç¨ĭ": 8184,
      "ĠWork": 8185,
      "Ġbug": 8186,
      "produ": 8187,
      "Server": 8188,
      "ounter": 8189,
      "çļĦå¤§": 8190,
      "å®ģ": 8191,
      "Ġpas": 8192,
      "Ġstories": 8193,
      "IB": 8194,
      "Ġforth": 8195,
      "mathsf": 8196,
      "onday": 8197,
      "ERR": 8198,
      "dule": 8199,
      "Ġwine": 8200,
      "ueix": 8201,
      "Ġrapid": 8202,
      "ĠWashington": 8203,
      "Ġ\\{": 8204,
      "åĲĪä½ľ": 8205,
      "ĠCas": 8206,
      "Ġpatient": 8207,
      "ĠAC": 8208,
      "aa": 8209,
      "Ġdro": 8210,
      "ĠFriday": 8211,
      "ĠDi": 8212,
      "MM": 8213,
      "Ġscience": 8214,
      "Ġprocedure": 8215,
      "Ġviews": 8216,
      "Ġpersones": 8217,
      "ĠGeorge": 8218,
      "isation": 8219,
      "Ġsociety": 8220,
      "onic": 8221,
      "tw": 8222,
      "ÑĤÑĬÑĢ": 8223,
      "Ġspecies": 8224,
      "ÐµÐ²": 8225,
      "åĩºäºĨ": 8226,
      "desc": 8227,
      "ÑģÐ»ÐµÐ´": 8228,
      "Ġaren": 8229,
      "Ġaim": 8230,
      "Ġchosen": 8231,
      "Ġscope": 8232,
      "Ġflex": 8233,
      "å¿ħé¡»": 8234,
      "ĠUniversitat": 8235,
      "çĶ³": 8236,
      "operator": 8237,
      "ĠCam": 8238,
      "Frame": 8239,
      "æķĪæŀľ": 8240,
      "}/": 8241,
      "ĠÐ²ÑĢÐµÐ¼Ðµ": 8242,
      "Ġconcent": 8243,
      "ĠÐ±ÑĬÐ»Ð³Ð°ÑĢ": 8244,
      "yr": 8245,
      "ĠDepartment": 8246,
      "push": 8247,
      "Ġfat": 8248,
      "Ġlad": 8249,
      "Ġleaves": 8250,
      "ĠCle": 8251,
      "Ġprotection": 8252,
      "æłĳ": 8253,
      "èĭ¥": 8254,
      "Ġcolors": 8255,
      "ç«Ł": 8256,
      "estival": 8257,
      "})\\": 8258,
      "comple": 8259,
      "Ġneighbor": 8260,
      "æ²Ļ": 8261,
      "Ġlaws": 8262,
      "ologies": 8263,
      "è¡Ĺ": 8264,
      "lam": 8265,
      "Ġsuppose": 8266,
      "åı¥": 8267,
      "Ð¶Ð´Ñĥ": 8268,
      "HERE": 8269,
      "Ġprofession": 8270,
      "ĠGold": 8271,
      "Ġmovie": 8272,
      "Ġimplies": 8273,
      "ĠAtt": 8274,
      "FO": 8275,
      "åĢĴ": 8276,
      "Ġforces": 8277,
      "NE": 8278,
      "èĦ¸": 8279,
      "åľĪ": 8280,
      "ĠView": 8281,
      "Ġstreet": 8282,
      "ito": 8283,
      "Psi": 8284,
      "ĠProgram": 8285,
      "Ġveg": 8286,
      "ç»©": 8287,
      "ĠFacebook": 8288,
      "Ġlots": 8289,
      "Ġmig": 8290,
      "Ġadopt": 8291,
      "Ġshift": 8292,
      "Ġcells": 8293,
      "ĠÐ¸Ð¼": 8294,
      "Factory": 8295,
      "Ġgift": 8296,
      "Ġgenerate": 8297,
      "Ġce": 8298,
      "Ġcentury": 8299,
      "}}}": 8300,
      "Ġafford": 8301,
      "Ġcommunication": 8302,
      "Ġminute": 8303,
      "maz": 8304,
      "Ã¤": 8305,
      "Fig": 8306,
      "è¡¨çİ°": 8307,
      "oday": 8308,
      "Ġlab": 8309,
      "Ġrise": 8310,
      "Ġmovement": 8311,
      "ĠClub": 8312,
      "æ¢¦": 8313,
      "æĬĹ": 8314,
      "è¿ĲåĬ¨": 8315,
      "Ġinterview": 8316,
      "hens": 8317,
      "Ġfinish": 8318,
      "æŀĲ": 8319,
      "Ġdiscussion": 8320,
      "ĠInternet": 8321,
      "NO": 8322,
      "stood": 8323,
      "Web": 8324,
      "Ġgarden": 8325,
      "ander": 8326,
      "ĠMuse": 8327,
      "Ġdra": 8328,
      "ĠExt": 8329,
      "ses": 8330,
      "çĻ»": 8331,
      "åİĨåı²": 8332,
      "CR": 8333,
      "ORT": 8334,
      "totype": 8335,
      "Ġinnov": 8336,
      "æ²»çĸĹ": 8337,
      "description": 8338,
      "ixed": 8339,
      "æ¸¸æĪı": 8340,
      "kit": 8341,
      "Ð¤": 8342,
      "env": 8343,
      "Ġfi": 8344,
      "fic": 8345,
      "åĮħæĭ¬": 8346,
      "ç¡Ģ": 8347,
      "Ġrepresentation": 8348,
      "Ġestablish": 8349,
      "qquad": 8350,
      "Ġbeauty": 8351,
      "Ġattend": 8352,
      "seg": 8353,
      "ç£": 8354,
      "éļľ": 8355,
      "åħ³æ³¨": 8356,
      "ĠBay": 8357,
      "Book": 8358,
      "Ġthousand": 8359,
      "ato": 8360,
      "åŁºç¡Ģ": 8361,
      "Ġprou": 8362,
      "Ġadult": 8363,
      "iga": 8364,
      "equiv": 8365,
      "Ġgate": 8366,
      "isiÃ³": 8367,
      "ĠMer": 8368,
      "è·ĳ": 8369,
      "Ġimpress": 8370,
      "digo": 8371,
      "tag": 8372,
      "Ġchain": 8373,
      "Ġactions": 8374,
      "unfinished": 8375,
      "Ġpolice": 8376,
      "Ġforeign": 8377,
      "otic": 8378,
      "Ġcollege": 8379,
      "Ġcin": 8380,
      "åĩºæĿ¥": 8381,
      "itness": 8382,
      "uer": 8383,
      "uman": 8384,
      "èĦļ": 8385,
      "Run": 8386,
      "std": 8387,
      "Ġowner": 8388,
      "è´£ä»»": 8389,
      "icions": 8390,
      "ĠEnd": 8391,
      "Ġstrange": 8392,
      "çļĦè¯Ŀ": 8393,
      "Ġreplace": 8394,
      "eler": 8395,
      "ĠJesus": 8396,
      "atin": 8397,
      "Ġpoder": 8398,
      "ĠDesign": 8399,
      "å«": 8400,
      "é²ľ": 8401,
      "Ġlargest": 8402,
      "Ġjourney": 8403,
      "weight": 8404,
      "Ġentered": 8405,
      "Ġdelay": 8406,
      "scious": 8407,
      "æ¬§": 8408,
      "Ġquarter": 8409,
      "amin": 8410,
      "å¯¼èĩ´": 8411,
      "asp": 8412,
      "ĠÐ²ÑĬÐ·": 8413,
      "ategory": 8414,
      "ĠMany": 8415,
      "åĪĽæĸ°": 8416,
      "Equal": 8417,
      "è§£åĨ³": 8418,
      "ÑħÐ°": 8419,
      "å¾ģ": 8420,
      "ws": 8421,
      "Button": 8422,
      "indent": 8423,
      "Ġhyp": 8424,
      "Rel": 8425,
      "Ġtenien": 8426,
      "Ġbudget": 8427,
      "Ġcapacity": 8428,
      "ÑĩÐµÐ½": 8429,
      "Ġprocessing": 8430,
      "ĠLeg": 8431,
      "acks": 8432,
      "endar": 8433,
      "oct": 8434,
      "é¥®": 8435,
      "arth": 8436,
      "Ġlose": 8437,
      "avor": 8438,
      "Ġkeeping": 8439,
      "cut": 8440,
      "è°Ī": 8441,
      "æĢķ": 8442,
      "BA": 8443,
      "å¹ħ": 8444,
      "Ġchem": 8445,
      "App": 8446,
      "å¢ŀéķ¿": 8447,
      "é¥Ń": 8448,
      "ifications": 8449,
      "Ð¿ÑĢÐµ": 8450,
      "DO": 8451,
      "å®Ī": 8452,
      "æ¸¯": 8453,
      "Ġahead": 8454,
      "Ġversions": 8455,
      "çĶ¨æĪ·": 8456,
      "support": 8457,
      "expected": 8458,
      "Update": 8459,
      "jection": 8460,
      "Ð½Ð¸ÑĨÐ¸": 8461,
      "Cons": 8462,
      "lowing": 8463,
      "æĩ": 8464,
      "mys": 8465,
      "ĠOnce": 8466,
      "Ġreports": 8467,
      "çĳ": 8468,
      "Ġanimals": 8469,
      "entry": 8470,
      "ĠÑı": 8471,
      "\"),": 8472,
      "Ġconsole": 8473,
      "Ġthrows": 8474,
      "Ġraised": 8475,
      "éĥ¨éĹ¨": 8476,
      "Ġraise": 8477,
      "Ġshell": 8478,
      "ÐµÐ¹": 8479,
      "Ġprepared": 8480,
      "æĳĦ": 8481,
      "Child": 8482,
      "ĠÐ§": 8483,
      "åķĬ": 8484,
      "ese": 8485,
      "Ġsnow": 8486,
      "ril": 8487,
      "roc": 8488,
      "Ġreduced": 8489,
      "aped": 8490,
      "åĪĨéĴŁ": 8491,
      "ĠIndian": 8492,
      "Ġdistinct": 8493,
      "Ġ^": 8494,
      "ĠÐ¡Ð¾": 8495,
      "dp": 8496,
      "Comp": 8497,
      "Ð¿Ð¾Ð»": 8498,
      "ĠLO": 8499,
      "Ġdiagram": 8500,
      "example": 8501,
      "Ġstarts": 8502,
      "would": 8503,
      "emple": 8504,
      "ç»§ç»Ń": 8505,
      "çĩ": 8506,
      "Ġ(\"": 8507,
      "Gr": 8508,
      "REF": 8509,
      "edom": 8510,
      "Ġtit": 8511,
      "Sec": 8512,
      "åĲĦç§į": 8513,
      "è´«": 8514,
      "Ġdinner": 8515,
      "Ġcoff": 8516,
      "Column": 8517,
      "ĠMake": 8518,
      "Te": 8519,
      "HP": 8520,
      "ĠTO": 8521,
      "ĠFebruary": 8522,
      "Ġtwenty": 8523,
      "ben": 8524,
      "Ġapparent": 8525,
      "Ġpreviously": 8526,
      "Dat": 8527,
      "Ġ+=": 8528,
      "BU": 8529,
      "Ð³Ñĥ": 8530,
      "ĠÐ´ÑĢÑĥ": 8531,
      "ĠEsp": 8532,
      "orial": 8533,
      "ĠBre": 8534,
      "ĠNetwork": 8535,
      "Ġneither": 8536,
      "è¿İ": 8537,
      "Buffer": 8538,
      "Ġpropos": 8539,
      "Ġclock": 8540,
      "ÑĢÐ°ÑĤÐ°": 8541,
      "Ġestimate": 8542,
      "Ġdriving": 8543,
      "Init": 8544,
      "ira": 8545,
      "Ġtroba": 8546,
      "sey": 8547,
      "Ġresistance": 8548,
      "ypes": 8549,
      "Ġsupposed": 8550,
      "unc": 8551,
      "é¡¾": 8552,
      "ãĥ": 8553,
      "Ġregions": 8554,
      "æĶ¿çŃĸ": 8555,
      "äººä»¬": 8556,
      "Ġgrup": 8557,
      "ĠServices": 8558,
      "Ġposted": 8559,
      "drop": 8560,
      "Ġperfectly": 8561,
      "ttp": 8562,
      "åħ³äºİ": 8563,
      "untime": 8564,
      "}}(": 8565,
      "gers": 8566,
      "ifts": 8567,
      "ĠGerman": 8568,
      "ä¹ĭéĹ´": 8569,
      "door": 8570,
      "ĠPublic": 8571,
      "Ġpunt": 8572,
      "ÑģÑĤÐ²Ðµ": 8573,
      "ç«ŀ": 8574,
      "ĠsegÃ¼ent": 8575,
      "Style": 8576,
      "Ġesta": 8577,
      "Ġaudio": 8578,
      "Ġhelped": 8579,
      "Ġur": 8580,
      "æĶ¯æĮģ": 8581,
      "ĠCD": 8582,
      "ĠSil": 8583,
      "ĠSpr": 8584,
      "Ġstopped": 8585,
      "Met": 8586,
      "Ġgall": 8587,
      "ĠnomÃ©s": 8588,
      "oder": 8589,
      "Ġhence": 8590,
      "even": 8591,
      "ĠCourt": 8592,
      "Ġratio": 8593,
      "allet": 8594,
      "æĢĢ": 8595,
      "III": 8596,
      "Ġbat": 8597,
      "Ġbot": 8598,
      "ä»į": 8599,
      "ĠLife": 8600,
      "è°¢": 8601,
      "Ġscheme": 8602,
      "ĠĠĠĠĠĠĠĠĠĠĠĠ$": 8603,
      "Ġmouth": 8604,
      "Ġcamera": 8605,
      "ĠPower": 8606,
      "care": 8607,
      "Ġhealthy": 8608,
      "rian": 8609,
      "Ġsurv": 8610,
      "èĽĭ": 8611,
      "obj": 8612,
      "Format": 8613,
      "Ġdepending": 8614,
      "è¿Ļä¹Ī": 8615,
      "apes": 8616,
      "Ġlaptop": 8617,
      "Ver": 8618,
      "Ġalternative": 8619,
      "Ġschools": 8620,
      "Ãłc": 8621,
      "æĽ´åĬł": 8622,
      "ffff": 8623,
      "riter": 8624,
      "FS": 8625,
      "Mat": 8626,
      "èĦ±": 8627,
      "Ġho": 8628,
      "arks": 8629,
      "iciency": 8630,
      "container": 8631,
      "Ġimpossible": 8632,
      "Ġhidden": 8633,
      "æĤ¨": 8634,
      "xspace": 8635,
      "oting": 8636,
      "Ġquantum": 8637,
      "Ġeditor": 8638,
      "rence": 8639,
      "èľ": 8640,
      "åĨł": 8641,
      "æĹħæ¸¸": 8642,
      "ç´¢": 8643,
      "Â°": 8644,
      "Ġplug": 8645,
      "Ġcup": 8646,
      "Ġpartners": 8647,
      "NAME": 8648,
      "Mr": 8649,
      "osc": 8650,
      "Ġwa": 8651,
      "tat": 8652,
      "ĠĠĠĠĠĠĠĠĠĠĠĠĠĠĠĠĠĠĠĠĠĠĠĠĠĠĠĠĠĠĠĠĠĠĠĠĠĠĠĠĠĠĠĠĠĠĠĠĠĠĠĠĠĠĠĠĠĠĠĠĠĠĠĠ": 8653,
      "ĠLemma": 8654,
      "Ġunits": 8655,
      "NN": 8656,
      "ĠSaturday": 8657,
      "Ġchair": 8658,
      "Ġtots": 8659,
      "è´¨éĩı": 8660,
      "æĿĢ": 8661,
      "Ġcommercial": 8662,
      "Ġpossibly": 8663,
      "Ġcontrast": 8664,
      "ĠWilliam": 8665,
      "andon": 8666,
      "Ġwear": 8667,
      "Ġlived": 8668,
      "filter": 8669,
      "Ġstone": 8670,
      "aks": 8671,
      "Ġdisease": 8672,
      "iverse": 8673,
      "ÑĩÐ²Ð°": 8674,
      "Ġtall": 8675,
      "è°ģ": 8676,
      "åİĤ": 8677,
      "ä¸ľè¥¿": 8678,
      "ĉthis": 8679,
      "remove": 8680,
      "}\\\\": 8681,
      "Ġwinter": 8682,
      "æİī": 8683,
      "Ġbattle": 8684,
      "ansion": 8685,
      "ĠConf": 8686,
      "Ġjug": 8687,
      "SL": 8688,
      "Ġscient": 8689,
      "ĠAPI": 8690,
      "navbar": 8691,
      "Ġnorth": 8692,
      "ĠAlex": 8693,
      "Ġspeech": 8694,
      "ĠMax": 8695,
      "Ġlabor": 8696,
      "anda": 8697,
      "ä¹Ŀ": 8698,
      "Ġmanufacture": 8699,
      "ĠCalifornia": 8700,
      "--\"": 8701,
      "Vis": 8702,
      "å¸®åĬ©": 8703,
      "Mon": 8704,
      "Ġfish": 8705,
      "ynch": 8706,
      "æľĿ": 8707,
      "Ġtur": 8708,
      "oded": 8709,
      "stack": 8710,
      "Ġsolve": 8711,
      "Ġadvert": 8712,
      "ĠArch": 8713,
      "yes": 8714,
      "Ġ|Ġ": 8715,
      "ĠCH": 8716,
      "ĠEuropean": 8717,
      "black": 8718,
      "Ġlisted": 8719,
      "kind": 8720,
      "Ġdrivers": 8721,
      "Ġserved": 8722,
      "attr": 8723,
      "Ġauth": 8724,
      "Ġgradu": 8725,
      "Ġmission": 8726,
      "Ġfamiliar": 8727,
      "Filter": 8728,
      "Ġkeys": 8729,
      "Ġrecords": 8730,
      "Ġrose": 8731,
      "ä¹ĭåīį": 8732,
      "åªĴ": 8733,
      "lines": 8734,
      "Ġentirely": 8735,
      "åĽ½åĨħ": 8736,
      "ername": 8737,
      "ĠTur": 8738,
      "etch": 8739,
      "Ġrelax": 8740,
      "ideos": 8741,
      "Ġasking": 8742,
      "pective": 8743,
      "Ð´Ð½Ð°": 8744,
      "ĠĠĠĠĠĠĠĠĠĠĠĠĠĠĠĠĠĠĠĠĠ": 8745,
      "ĠAnn": 8746,
      "bur": 8747,
      "imer": 8748,
      "ĉĉĉĉĉĉ<": 8749,
      "Ġcorpor": 8750,
      "envol": 8751,
      "å¤ĦçĲĨ": 8752,
      "Ã²n": 8753,
      "Ġbrief": 8754,
      "Dev": 8755,
      "ĠVir": 8756,
      "ett": 8757,
      "Ġiron": 8758,
      "Ġappearance": 8759,
      "normal": 8760,
      "ĠÂ£": 8761,
      "linux": 8762,
      "ĠUN": 8763,
      "Ġdesired": 8764,
      "æķĳ": 8765,
      "Ġdepth": 8766,
      "riptor": 8767,
      "acity": 8768,
      "vention": 8769,
      "Ġtenir": 8770,
      "Ġcategory": 8771,
      "è®°èĢħ": 8772,
      "åĵĪ": 8773,
      "iration": 8774,
      "Ġpassion": 8775,
      "sin": 8776,
      "Ġgentle": 8777,
      "ĠIns": 8778,
      "éĹ»": 8779,
      "Output": 8780,
      "Layout": 8781,
      "ĠBusiness": 8782,
      "æĻºèĥ½": 8783,
      "Ġhonest": 8784,
      "Ġdirig": 8785,
      "çļĦå°ı": 8786,
      "ÑģÑĤÐ²Ð°": 8787,
      "Pat": 8788,
      "ulse": 8789,
      "Âłhabitants": 8790,
      "çŃ¾": 8791,
      "Ġodd": 8792,
      "Ġboundary": 8793,
      "åĲ¯": 8794,
      "matrix": 8795,
      "eger": 8796,
      "âĨ": 8797,
      "åºı": 8798,
      "çĿ¡": 8799,
      "Ġmanage": 8800,
      "Ġowners": 8801,
      "Ġshoot": 8802,
      "Ġplain": 8803,
      "Ġje": 8804,
      "Ġsector": 8805,
      "Ġnodes": 8806,
      "esome": 8807,
      "Ð´Ð¸Ð½": 8808,
      "ĠWil": 8809,
      "ouncil": 8810,
      "å½¢æĪĲ": 8811,
      "Ġjoy": 8812,
      "Ġoffset": 8813,
      "Ġcash": 8814,
      "response": 8815,
      "\",\"": 8816,
      "Ġculture": 8817,
      "ç³ĸ": 8818,
      "Ġelectr": 8819,
      "ä»»ä½ķ": 8820,
      "å¥¶": 8821,
      "olar": 8822,
      "å½ĵæĹ¶": 8823,
      "Ġboys": 8824,
      "Ġlaunch": 8825,
      "Ġdispos": 8826,
      "ifact": 8827,
      "ÑĨÐ¸ÑĤÐµ": 8828,
      "lÃŃcula": 8829,
      "ĠStart": 8830,
      "udio": 8831,
      "ĠcÃ³digo": 8832,
      "ç½ª": 8833,
      "éĻ¤äºĨ": 8834,
      "Ġmagnetic": 8835,
      "pad": 8836,
      "Ġdesire": 8837,
      "Ġexperienced": 8838,
      "rolled": 8839,
      "unn": 8840,
      "ĠSmith": 8841,
      "åľ°åĮº": 8842,
      "ĠHD": 8843,
      "Ġsynt": 8844,
      "Ġidentify": 8845,
      "nections": 8846,
      "æ¯ĶèµĽ": 8847,
      "ĠÐ¿Ð¸": 8848,
      "Ġorient": 8849,
      "sd": 8850,
      "Ġil": 8851,
      "ĠJul": 8852,
      "ĠKey": 8853,
      "fortunately": 8854,
      "ĠAL": 8855,
      "ptr": 8856,
      "è½¯": 8857,
      "ç»¼": 8858,
      "inese": 8859,
      "Ġyouth": 8860,
      "glÃ©s": 8861,
      "Dep": 8862,
      "Also": 8863,
      "scr": 8864,
      "Ð·Ð½Ð°": 8865,
      "going": 8866,
      "Ġcards": 8867,
      "æĺ¯åĲ¦": 8868,
      "'),": 8869,
      "Ġsouth": 8870,
      "Ġintended": 8871,
      "Ġbag": 8872,
      "ĠParis": 8873,
      "Ġresponsible": 8874,
      "ORD": 8875,
      "ç»ĵæŀľ": 8876,
      "ĠFranÃ§a": 8877,
      "Ġdecide": 8878,
      "æľīçļĦ": 8879,
      "anned": 8880,
      "Ġsuperior": 8881,
      "onom": 8882,
      "ciÃ³n": 8883,
      "ĠWhere": 8884,
      "Ġstrict": 8885,
      "ĠPack": 8886,
      "åħ¸": 8887,
      "Ġcontroller": 8888,
      "æľºæŀĦ": 8889,
      "ĠWho": 8890,
      "Ġcompare": 8891,
      "ĠDevelop": 8892,
      "SO": 8893,
      "åıĳå¸ĥ": 8894,
      "Ġ&\\": 8895,
      "Ġcontaining": 8896,
      "iples": 8897,
      "May": 8898,
      "document": 8899,
      "Ġbeat": 8900,
      "ĠProject": 8901,
      "Ġpolic": 8902,
      "Ġstanding": 8903,
      "Ġconce": 8904,
      "ĠCanada": 8905,
      "olic": 8906,
      "Ġemployees": 8907,
      "och": 8908,
      "ented": 8909,
      "ĠCall": 8910,
      "missions": 8911,
      "aked": 8912,
      "ĠFlor": 8913,
      "Ġfabric": 8914,
      "ĠPlan": 8915,
      "Ġextended": 8916,
      "tml": 8917,
      "Ġchallenge": 8918,
      "Ġcomparison": 8919,
      "cache": 8920,
      "Ġspoke": 8921,
      "Ġgerm": 8922,
      "å°ļ": 8923,
      "Max": 8924,
      "Return": 8925,
      "gle": 8926,
      "Ġintr": 8927,
      "edy": 8928,
      "iat": 8929,
      "sor": 8930,
      "rule": 8931,
      "Ġhardware": 8932,
      "èģļ": 8933,
      "Ġmilitary": 8934,
      "Ġencara": 8935,
      "lles": 8936,
      "Ġbon": 8937,
      "Ġequations": 8938,
      "ĠUsing": 8939,
      "çŃĶ": 8940,
      "Ġregister": 8941,
      "Ġbought": 8942,
      "','": 8943,
      "å®ŀéĻħ": 8944,
      "Ġagent": 8945,
      "ĠPress": 8946,
      "Ġfle": 8947,
      "é¡¶": 8948,
      "Ġnatur": 8949,
      "Ġadvanced": 8950,
      "water": 8951,
      "agn": 8952,
      "about": 8953,
      "Ġefforts": 8954,
      "Top": 8955,
      "envolup": 8956,
      "è¿Ŀ": 8957,
      "Ġconflic": 8958,
      "Ġtherm": 8959,
      "Ġreader": 8960,
      "}\\,": 8961,
      "yg": 8962,
      "odo": 8963,
      "Ġupdates": 8964,
      "Ġsuddenly": 8965,
      "Ġboat": 8966,
      "Ġtrend": 8967,
      "ĠMain": 8968,
      "ĠLook": 8969,
      "bi": 8970,
      "çľŁçļĦ": 8971,
      "background": 8972,
      "{{": 8973,
      "Ġformal": 8974,
      "icate": 8975,
      "Controller": 8976,
      "ĠÑĩÐ°ÑģÑĤ": 8977,
      "abil": 8978,
      "Ġopportunities": 8979,
      "çģ¯": 8980,
      "éģ¿": 8981,
      "Ġgeneration": 8982,
      "Ġalign": 8983,
      "Ġbear": 8984,
      "Ġpartir": 8985,
      "amente": 8986,
      "å®¶åºŃ": 8987,
      "Ġupgrade": 8988,
      "Mem": 8989,
      "ccion": 8990,
      "vid": 8991,
      "Ġmetal": 8992,
      "Ġvary": 8993,
      "serve": 8994,
      "LASS": 8995,
      "Ġdual": 8996,
      "Ġsomewhat": 8997,
      "Ġuniform": 8998,
      "Ġfavour": 8999,
      "ÐºÑĤ": 9000,
      "vas": 9001,
      "Ġdesktop": 9002,
      "Ġbreath": 9003,
      "Ġkm": 9004,
      "éĵ¶è¡Į": 9005,
      "æľīéĻĲ": 9006,
      "ĠÐ±Ð°": 9007,
      "Ġmant": 9008,
      "je": 9009,
      "ĠJe": 9010,
      "Ġfant": 9011,
      "RI": 9012,
      "Eng": 9013,
      "cial": 9014,
      "power": 9015,
      "Ġcomfortable": 9016,
      "icans": 9017,
      "appy": 9018,
      "Ġ$|": 9019,
      "å¤ı": 9020,
      "sect": 9021,
      "ometimes": 9022,
      "Ġtele": 9023,
      "Ġrepair": 9024,
      "ye": 9025,
      "ÑĪÐ½Ð¸": 9026,
      "ubre": 9027,
      "Ġelimin": 9028,
      "ĠBecause": 9029,
      "ç¤¼": 9030,
      "Ġlisten": 9031,
      "Car": 9032,
      "ä»·åĢ¼": 9033,
      "Ġspeaking": 9034,
      "ĠBest": 9035,
      "Ġsust": 9036,
      "é¦Ĩ": 9037,
      "ĠCON": 9038,
      "ĠCa": 9039,
      "Pack": 9040,
      "umerate": 9041,
      "bal": 9042,
      "sur": 9043,
      "éľ²": 9044,
      "ĠaixÃŃ": 9045,
      "ĠNews": 9046,
      "Ġhur": 9047,
      "ifies": 9048,
      "ç»į": 9049,
      "ĠÐ°ÑĢ": 9050,
      "ilos": 9051,
      "éĶ®": 9052,
      "Ġexplicit": 9053,
      "Ġgoals": 9054,
      "ÐŁÐ¾": 9055,
      "ĠLong": 9056,
      "Script": 9057,
      "hetic": 9058,
      "Ġimportance": 9059,
      "éĴĪ": 9060,
      "æĸ°çļĦ": 9061,
      "è¾¾åĪ°": 9062,
      "Ġtemplate": 9063,
      "äº¤éĢļ": 9064,
      "Ġanomen": 9065,
      "åĸĿ": 9066,
      "ontal": 9067,
      "URL": 9068,
      "éħ¸": 9069,
      "æŁĵ": 9070,
      "å¨ģ": 9071,
      "Ġbackup": 9072,
      "ä¸ĢçĤ¹": 9073,
      "Ġhonor": 9074,
      "åı¶": 9075,
      "æīįèĥ½": 9076,
      "æĿ¨": 9077,
      ")\"": 9078,
      "Ġcheap": 9079,
      "sign": 9080,
      "èĹı": 9081,
      "è¿°": 9082,
      "Write": 9083,
      "Ġrecon": 9084,
      "ĠVis": 9085,
      "Person": 9086,
      "Ġbalance": 9087,
      "'}": 9088,
      "æ¯ıå¤©": 9089,
      "Ð¼Ð¸ÑĢÐ°": 9090,
      "itut": 9091,
      "Ġought": 9092,
      "æĹłæ³ķ": 9093,
      "Address": 9094,
      "ä¼´": 9095,
      "empres": 9096,
      "è·Į": 9097,
      "ĠSing": 9098,
      "files": 9099,
      "ÑıÑĤÐ¾": 9100,
      "ACK": 9101,
      "Thank": 9102,
      "æĸĹ": 9103,
      "Ġarguments": 9104,
      "éĢłæĪĲ": 9105,
      "Ġsuggested": 9106,
      "Ġsharing": 9107,
      "æĹ¶ä»£": 9108,
      "Ġmunicipi": 9109,
      "Ġrough": 9110,
      "Ġhighlight": 9111,
      "é©¶": 9112,
      "eting": 9113,
      "æķ£": 9114,
      "rible": 9115,
      "Function": 9116,
      "faces": 9117,
      "Ð½Ð¾Ð²": 9118,
      "Ġpron": 9119,
      "Ġnucle": 9120,
      "ĉ<": 9121,
      "Ġenabled": 9122,
      "lies": 9123,
      "Ġfailure": 9124,
      "}}{\\": 9125,
      "æ¯Ķå¦Ĥ": 9126,
      "æľªæĿ¥": 9127,
      "road": 9128,
      "Ġduty": 9129,
      "ogether": 9130,
      "Ġcompat": 9131,
      "Ġtests": 9132,
      "éĢĲ": 9133,
      "plications": 9134,
      "Ġoblig": 9135,
      "Co": 9136,
      "çĽĸ": 9137,
      "Use": 9138,
      "Ġprompt": 9139,
      "ĠLl": 9140,
      "Ġoffering": 9141,
      "ĠÑģÑĢÐµ": 9142,
      "ĠResearch": 9143,
      "ĠSum": 9144,
      "Ġconfirm": 9145,
      "Ġ{@": 9146,
      "hav": 9147,
      "Ġdiscussed": 9148,
      "æľīäºĽ": 9149,
      "Ġcauses": 9150,
      "reens": 9151,
      "ĠApp": 9152,
      "kin": 9153,
      "pp": 9154,
      "ä¼ĳ": 9155,
      "([": 9156,
      "Ġfaster": 9157,
      "ãĤ": 9158,
      "ĠÐ½ÐµÐ³Ð¾": 9159,
      "å½ĵçĦ¶": 9160,
      "Ġarticles": 9161,
      "ĠEv": 9162,
      "SA": 9163,
      "bet": 9164,
      "ĠTop": 9165,
      "Ġorders": 9166,
      "Ġformed": 9167,
      "onal": 9168,
      "ilton": 9169,
      "ĠCE": 9170,
      "Ġrect": 9171,
      "strap": 9172,
      "Po": 9173,
      "Ġcycle": 9174,
      "icion": 9175,
      "Ġdiscover": 9176,
      "çĶ°": 9177,
      "osh": 9178,
      "Ġdelight": 9179,
      "Ġmessages": 9180,
      "Ð»Ð¸ÑĤÐµ": 9181,
      "ÐºÐ¾Ð²": 9182,
      "ĠNor": 9183,
      "Ġeconomic": 9184,
      "obert": 9185,
      "Ġtraffic": 9186,
      "ĠÃīs": 9187,
      "Ġtypically": 9188,
      "Ġdocuments": 9189,
      "å¼Ģå±ķ": 9190,
      "Ġletters": 9191,
      "ç©ºéĹ´": 9192,
      "Ġaccompl": 9193,
      "Ġoperating": 9194,
      "ĠTheir": 9195,
      "}:": 9196,
      "ĠFrank": 9197,
      "ĠLu": 9198,
      "Ġexistence": 9199,
      "ĠÐ½Ñı": 9200,
      "ĠBas": 9201,
      "Ġtelev": 9202,
      "Ġok": 9203,
      "ĠĠĠĠĠĠĠĠĠĠĠĠĠĠĠĠĠĠ": 9204,
      "Ġvisible": 9205,
      "prec": 9206,
      "persones": 9207,
      "ĠMichael": 9208,
      "iki": 9209,
      "Ð²ÐµÑĤ": 9210,
      "éĺ¶": 9211,
      "Ġqued": 9212,
      "ä¿ĥ": 9213,
      "Ġdenote": 9214,
      "cknow": 9215,
      "Row": 9216,
      "ted": 9217,
      "step": 9218,
      "Ġexcited": 9219,
      "Ġ**": 9220,
      "tree": 9221,
      "los": 9222,
      "ç¬¬ä¸ī": 9223,
      "sn": 9224,
      "idel": 9225,
      "resents": 9226,
      "Ġtasks": 9227,
      "Ġbusinesses": 9228,
      "Ġsides": 9229,
      "Ġgalax": 9230,
      "isters": 9231,
      "Âłpersones": 9232,
      "é¸¡": 9233,
      "ternoon": 9234,
      "ĠGran": 9235,
      "orig": 9236,
      "Ġsister": 9237,
      "ä¿ĿæĬ¤": 9238,
      "endif": 9239,
      "Ġturns": 9240,
      "Ġquad": 9241,
      "rend": 9242,
      "å½Ĵ": 9243,
      "éĢı": 9244,
      "amm": 9245,
      "Ġuncertain": 9246,
      "ĠHall": 9247,
      "exas": 9248,
      "Ġjobs": 9249,
      "Ġreviews": 9250,
      "Ġannounced": 9251,
      "eness": 9252,
      "ĠDiv": 9253,
      "values": 9254,
      "citet": 9255,
      "èµĦæºĲ": 9256,
      "Ġunknown": 9257,
      "clusive": 9258,
      "éĶĢåĶ®": 9259,
      "otal": 9260,
      "MO": 9261,
      "Ġevolution": 9262,
      "ĠBig": 9263,
      "ĉ\"": 9264,
      "æİ§åĪ¶": 9265,
      "linear": 9266,
      "ĠiPhone": 9267,
      "Just": 9268,
      "åĪĨæŀĲ": 9269,
      "Ġnotes": 9270,
      "âĶĢâĶĢ": 9271,
      "Ġobst": 9272,
      "./": 9273,
      "Ġabsolutely": 9274,
      "tical": 9275,
      "ĠRoy": 9276,
      "Ġcolour": 9277,
      "Ġaccident": 9278,
      "ä½³": 9279,
      "ä¸ĩåħĥ": 9280,
      "Ġentertain": 9281,
      "Ġlie": 9282,
      "Dec": 9283,
      "ĠSl": 9284,
      "Ġtechniques": 9285,
      "æ¶²": 9286,
      "ÐĽ": 9287,
      "èį£": 9288,
      "ĠAngel": 9289,
      "Ġsuitable": 9290,
      "card": 9291,
      "ĠCouncil": 9292,
      "éļıçĿĢ": 9293,
      "Ġbrain": 9294,
      "ĠAv": 9295,
      "çĪ¸": 9296,
      "Ġtopic": 9297,
      "ĠError": 9298,
      "(&": 9299,
      "Ġsetembre": 9300,
      "Ġlogin": 9301,
      "AGE": 9302,
      "pled": 9303,
      "ĠTwo": 9304,
      "Ġnoticed": 9305,
      "ĠPeter": 9306,
      "mac": 9307,
      "neq": 9308,
      "éª¨": 9309,
      "Ġparallel": 9310,
      "BO": 9311,
      "ĠDate": 9312,
      "txt": 9313,
      "ading": 9314,
      "äº§çĶŁ": 9315,
      "åį±": 9316,
      "Ġprison": 9317,
      "ĠÐľÐ¸": 9318,
      "Ġderiv": 9319,
      "ĠOnly": 9320,
      "Ġincorpor": 9321,
      "Ġcaught": 9322,
      "æľīæķĪ": 9323,
      "Ġradio": 9324,
      "ĠOld": 9325,
      "ĠRiver": 9326,
      "Ġputting": 9327,
      "prim": 9328,
      "ä¸Ĭæµ·": 9329,
      "ĠMA": 9330,
      "Ġremaining": 9331,
      "Ġproud": 9332,
      "Ġmentre": 9333,
      "Ġsle": 9334,
      "ÃŃn": 9335,
      "Ġconfigure": 9336,
      "Ġdar": 9337,
      "ĠGener": 9338,
      "Ġdetailed": 9339,
      "Ġya": 9340,
      "Ġwelcome": 9341,
      "Ġresulting": 9342,
      "ä¿ĿæĮģ": 9343,
      "tx": 9344,
      "ä¹Łæľī": 9345,
      "ĠLove": 9346,
      "ĠMonday": 9347,
      "yal": 9348,
      "åĬª": 9349,
      "etes": 9350,
      "break": 9351,
      "Ġcontinuous": 9352,
      "second": 9353,
      "çĤİ": 9354,
      "Ġflag": 9355,
      "å¸ģ": 9356,
      "Ġconversation": 9357,
      "Ġdiscovered": 9358,
      "Ġllarg": 9359,
      "bul": 9360,
      "segu": 9361,
      "({\\": 9362,
      "Ġcoffee": 9363,
      "æ¸Ĳ": 9364,
      "Ġemb": 9365,
      "Ġembed": 9366,
      "ados": 9367,
      "å®Įåħ¨": 9368,
      "////////////////": 9369,
      "CM": 9370,
      "uled": 9371,
      "Ġagreement": 9372,
      "arian": 9373,
      "Ġsitting": 9374,
      "é¹": 9375,
      "æ´²": 9376,
      "Ġrid": 9377,
      "Valid": 9378,
      "é¥°": 9379,
      "âķĲ": 9380,
      "Ġconsistent": 9381,
      "ĠGL": 9382,
      "ĠSanta": 9383,
      "Bo": 9384,
      "ridge": 9385,
      "onym": 9386,
      "Ġmanaged": 9387,
      "éľĢæ±Ĥ": 9388,
      "ÑĮÐ¾": 9389,
      "Ġtransaction": 9390,
      "å»¶": 9391,
      "Ġtechnical": 9392,
      "lets": 9393,
      "direct": 9394,
      "generic": 9395,
      "Ġhelpful": 9396,
      "åıªè¦ģ": 9397,
      "ÐĿÐ°": 9398,
      "ez": 9399,
      "ĠaixÃ²": 9400,
      "Ġthee": 9401,
      ")/": 9402,
      "Ġlif": 9403,
      "äº¤æĺĵ": 9404,
      "Ġice": 9405,
      "éĩĩçĶ¨": 9406,
      "ĠnÃº": 9407,
      "ĠSoft": 9408,
      "Length": 9409,
      "ÑĩÐµÑģÐºÐ¸": 9410,
      "Ġslowly": 9411,
      "å°ıæĹ¶": 9412,
      "apple": 9413,
      "ĠÐ°Ð²": 9414,
      "Ġremote": 9415,
      "Ġblocks": 9416,
      "è¸": 9417,
      "Ġcommands": 9418,
      "ĠOffice": 9419,
      "Ġstored": 9420,
      "Ġbuffer": 9421,
      "çĸ¾": 9422,
      "unit": 9423,
      "Ð¾Ð³ÑĢÐ°": 9424,
[...]
